{
  "version": "1.0",
  "truncation": null,
  "padding": null,
  "added_tokens": [
    {
      "id": 0,
      "content": "<s>",
      "single_word": false,
      "lstrip": false,
      "rstrip": false,
      "normalized": false,
      "special": true
    },
    {
      "id": 1,
      "content": "<pad>",
      "single_word": false,
      "lstrip": false,
      "rstrip": false,
      "normalized": false,
      "special": true
    },
    {
      "id": 2,
      "content": "</s>",
      "single_word": false,
      "lstrip": false,
      "rstrip": false,
      "normalized": false,
      "special": true
    },
    {
      "id": 3,
      "content": "<unk>",
      "single_word": false,
      "lstrip": false,
      "rstrip": false,
      "normalized": false,
      "special": true
    },
    {
      "id": 4,
      "content": "[START_REF]",
      "single_word": false,
      "lstrip": false,
      "rstrip": false,
      "normalized": false,
      "special": true
    },
    {
      "id": 5,
      "content": "[END_REF]",
      "single_word": false,
      "lstrip": false,
      "rstrip": false,
      "normalized": false,
      "special": true
    },
    {
      "id": 6,
      "content": "[IMAGE]",
      "single_word": false,
      "lstrip": false,
      "rstrip": false,
      "normalized": false,
      "special": true
    },
    {
      "id": 7,
      "content": "<fragments>",
      "single_word": false,
      "lstrip": false,
      "rstrip": false,
      "normalized": false,
      "special": true
    },
    {
      "id": 8,
      "content": "</fragments>",
      "single_word": false,
      "lstrip": false,
      "rstrip": false,
      "normalized": false,
      "special": true
    },
    {
      "id": 9,
      "content": "<work>",
      "single_word": false,
      "lstrip": false,
      "rstrip": false,
      "normalized": false,
      "special": true
    },
    {
      "id": 10,
      "content": "</work>",
      "single_word": false,
      "lstrip": false,
      "rstrip": false,
      "normalized": false,
      "special": true
    },
    {
      "id": 11,
      "content": "[START_SUP]",
      "single_word": false,
      "lstrip": false,
      "rstrip": false,
      "normalized": false,
      "special": true
    },
    {
      "id": 12,
      "content": "[END_SUP]",
      "single_word": false,
      "lstrip": false,
      "rstrip": false,
      "normalized": false,
      "special": true
    },
    {
      "id": 13,
      "content": "[START_SUB]",
      "single_word": false,
      "lstrip": false,
      "rstrip": false,
      "normalized": false,
      "special": true
    },
    {
      "id": 14,
      "content": "[END_SUB]",
      "single_word": false,
      "lstrip": false,
      "rstrip": false,
      "normalized": false,
      "special": true
    },
    {
      "id": 15,
      "content": "[START_DNA]",
      "single_word": false,
      "lstrip": false,
      "rstrip": false,
      "normalized": false,
      "special": true
    },
    {
      "id": 16,
      "content": "[END_DNA]",
      "single_word": false,
      "lstrip": false,
      "rstrip": false,
      "normalized": false,
      "special": true
    },
    {
      "id": 17,
      "content": "[START_AMINO]",
      "single_word": false,
      "lstrip": false,
      "rstrip": false,
      "normalized": false,
      "special": true
    },
    {
      "id": 18,
      "content": "[END_AMINO]",
      "single_word": false,
      "lstrip": false,
      "rstrip": false,
      "normalized": false,
      "special": true
    },
    {
      "id": 19,
      "content": "[START_SMILES]",
      "single_word": false,
      "lstrip": false,
      "rstrip": false,
      "normalized": false,
      "special": true
    },
    {
      "id": 20,
      "content": "[END_SMILES]",
      "single_word": false,
      "lstrip": false,
      "rstrip": false,
      "normalized": false,
      "special": true
    },
    {
      "id": 21,
      "content": "[START_I_SMILES]",
      "single_word": false,
      "lstrip": false,
      "rstrip": false,
      "normalized": false,
      "special": true
    },
    {
      "id": 22,
      "content": "[END_I_SMILES]",
      "single_word": false,
      "lstrip": false,
      "rstrip": false,
      "normalized": false,
      "special": true
    },
    {
      "id": 84,
      "content": "^",
      "single_word": false,
      "lstrip": false,
      "rstrip": false,
      "normalized": true,
      "special": false
    },
    {
      "id": 85,
      "content": "_",
      "single_word": false,
      "lstrip": false,
      "rstrip": false,
      "normalized": true,
      "special": false
    },
    {
      "id": 1900,
      "content": "\\\\",
      "single_word": false,
      "lstrip": false,
      "rstrip": false,
      "normalized": true,
      "special": false
    },
    {
      "id": 50000,
      "content": "<FOOTNOTE>",
      "single_word": false,
      "lstrip": false,
      "rstrip": false,
      "normalized": false,
      "special": true
    },
    {
      "id": 50001,
      "content": "<FLOAT>",
      "single_word": false,
      "lstrip": false,
      "rstrip": false,
      "normalized": false,
      "special": true
    },
    {
      "id": 50002,
      "content": "<FIGURE>",
      "single_word": false,
      "lstrip": false,
      "rstrip": false,
      "normalized": false,
      "special": true
    },
    {
      "id": 50003,
      "content": "<TABLE>",
      "single_word": false,
      "lstrip": false,
      "rstrip": false,
      "normalized": false,
      "special": true
    },
    {
      "id": 50004,
      "content": "<BLOCK_MATH>",
      "single_word": false,
      "lstrip": false,
      "rstrip": false,
      "normalized": false,
      "special": true
    },
    {
      "id": 50005,
      "content": "<NEWLINE>",
      "single_word": false,
      "lstrip": false,
      "rstrip": false,
      "normalized": false,
      "special": true
    },
    {
      "id": 50006,
      "content": "<CAP_START>",
      "single_word": false,
      "lstrip": false,
      "rstrip": false,
      "normalized": false,
      "special": true
    },
    {
      "id": 50007,
      "content": "<CAP_END>",
      "single_word": false,
      "lstrip": false,
      "rstrip": false,
      "normalized": false,
      "special": true
    },
    {
      "id": 50008,
      "content": "<INLINE_MATH_START>",
      "single_word": false,
      "lstrip": false,
      "rstrip": false,
      "normalized": false,
      "special": true
    },
    {
      "id": 50009,
      "content": "<INLINE_MATH_END>",
      "single_word": false,
      "lstrip": false,
      "rstrip": false,
      "normalized": false,
      "special": true
    },
    {
      "id": 50010,
      "content": "\\gamma",
      "single_word": false,
      "lstrip": false,
      "rstrip": false,
      "normalized": true,
      "special": false
    },
    {
      "id": 50011,
      "content": "\\LARGE",
      "single_word": false,
      "lstrip": false,
      "rstrip": false,
      "normalized": true,
      "special": false
    },
    {
      "id": 50012,
      "content": "\\normalsize",
      "single_word": false,
      "lstrip": false,
      "rstrip": false,
      "normalized": true,
      "special": false
    },
    {
      "id": 50013,
      "content": "\\phi",
      "single_word": false,
      "lstrip": false,
      "rstrip": false,
      "normalized": true,
      "special": false
    },
    {
      "id": 50014,
      "content": "\\Nu",
      "single_word": false,
      "lstrip": false,
      "rstrip": false,
      "normalized": true,
      "special": false
    },
    {
      "id": 50015,
      "content": "\\mskip",
      "single_word": false,
      "lstrip": false,
      "rstrip": false,
      "normalized": true,
      "special": false
    },
    {
      "id": 50016,
      "content": "\\textbf",
      "single_word": false,
      "lstrip": false,
      "rstrip": false,
      "normalized": true,
      "special": false
    },
    {
      "id": 50017,
      "content": "\\!",
      "single_word": false,
      "lstrip": false,
      "rstrip": false,
      "normalized": true,
      "special": false
    },
    {
      "id": 50018,
      "content": "\\align*",
      "single_word": false,
      "lstrip": false,
      "rstrip": false,
      "normalized": true,
      "special": false
    },
    {
      "id": 50019,
      "content": "\\left",
      "single_word": false,
      "lstrip": false,
      "rstrip": false,
      "normalized": true,
      "special": false
    },
    {
      "id": 50020,
      "content": "\\Tau",
      "single_word": false,
      "lstrip": false,
      "rstrip": false,
      "normalized": true,
      "special": false
    },
    {
      "id": 50021,
      "content": "\\overparen",
      "single_word": false,
      "lstrip": false,
      "rstrip": false,
      "normalized": true,
      "special": false
    },
    {
      "id": 50022,
      "content": "\\color",
      "single_word": false,
      "lstrip": false,
      "rstrip": false,
      "normalized": true,
      "special": false
    },
    {
      "id": 50023,
      "content": "\\tan",
      "single_word": false,
      "lstrip": false,
      "rstrip": false,
      "normalized": true,
      "special": false
    },
    {
      "id": 50024,
      "content": "\\omicron",
      "single_word": false,
      "lstrip": false,
      "rstrip": false,
      "normalized": true,
      "special": false
    },
    {
      "id": 50025,
      "content": "\\Eta",
      "single_word": false,
      "lstrip": false,
      "rstrip": false,
      "normalized": true,
      "special": false
    },
    {
      "id": 50026,
      "content": "\\hspace",
      "single_word": false,
      "lstrip": false,
      "rstrip": false,
      "normalized": true,
      "special": false
    },
    {
      "id": 50027,
      "content": "\\Xi",
      "single_word": false,
      "lstrip": false,
      "rstrip": false,
      "normalized": true,
      "special": false
    },
    {
      "id": 50028,
      "content": "\\mathbb",
      "single_word": false,
      "lstrip": false,
      "rstrip": false,
      "normalized": true,
      "special": false
    },
    {
      "id": 50029,
      "content": "\\phantom",
      "single_word": false,
      "lstrip": false,
      "rstrip": false,
      "normalized": true,
      "special": false
    },
    {
      "id": 50030,
      "content": "\\vec",
      "single_word": false,
      "lstrip": false,
      "rstrip": false,
      "normalized": true,
      "special": false
    },
    {
      "id": 50031,
      "content": "\\small",
      "single_word": false,
      "lstrip": false,
      "rstrip": false,
      "normalized": true,
      "special": false
    },
    {
      "id": 50032,
      "content": "\\kern",
      "single_word": false,
      "lstrip": false,
      "rstrip": false,
      "normalized": true,
      "special": false
    },
    {
      "id": 50033,
      "content": "\\overleftrightarrow",
      "single_word": false,
      "lstrip": false,
      "rstrip": false,
      "normalized": true,
      "special": false
    },
    {
      "id": 50034,
      "content": "\\array",
      "single_word": false,
      "lstrip": false,
      "rstrip": false,
      "normalized": true,
      "special": false
    },
    {
      "id": 50035,
      "content": "\\max",
      "single_word": false,
      "lstrip": false,
      "rstrip": false,
      "normalized": true,
      "special": false
    },
    {
      "id": 50036,
      "content": "\\dim",
      "single_word": false,
      "lstrip": false,
      "rstrip": false,
      "normalized": true,
      "special": false
    },
    {
      "id": 50037,
      "content": "\\exp",
      "single_word": false,
      "lstrip": false,
      "rstrip": false,
      "normalized": true,
      "special": false
    },
    {
      "id": 50038,
      "content": "\\negthickspace",
      "single_word": false,
      "lstrip": false,
      "rstrip": false,
      "normalized": true,
      "special": false
    },
    {
      "id": 50039,
      "content": "\\cosh",
      "single_word": false,
      "lstrip": false,
      "rstrip": false,
      "normalized": true,
      "special": false
    },
    {
      "id": 50040,
      "content": "\\dbinom",
      "single_word": false,
      "lstrip": false,
      "rstrip": false,
      "normalized": true,
      "special": false
    },
    {
      "id": 50041,
      "content": "\\vmatrix",
      "single_word": false,
      "lstrip": false,
      "rstrip": false,
      "normalized": true,
      "special": false
    },
    {
      "id": 50042,
      "content": "\\underleftrightarrow",
      "single_word": false,
      "lstrip": false,
      "rstrip": false,
      "normalized": true,
      "special": false
    },
    {
      "id": 50043,
      "content": "\\;",
      "single_word": false,
      "lstrip": false,
      "rstrip": false,
      "normalized": true,
      "special": false
    },
    {
      "id": 50044,
      "content": "\\Kappa",
      "single_word": false,
      "lstrip": false,
      "rstrip": false,
      "normalized": true,
      "special": false
    },
    {
      "id": 50045,
      "content": "\\overset",
      "single_word": false,
      "lstrip": false,
      "rstrip": false,
      "normalized": true,
      "special": false
    },
    {
      "id": 50046,
      "content": "\\cot",
      "single_word": false,
      "lstrip": false,
      "rstrip": false,
      "normalized": true,
      "special": false
    },
    {
      "id": 50047,
      "content": "\\bigl",
      "single_word": false,
      "lstrip": false,
      "rstrip": false,
      "normalized": true,
      "special": false
    },
    {
      "id": 50048,
      "content": "\\sqrt",
      "single_word": false,
      "lstrip": false,
      "rstrip": false,
      "normalized": true,
      "special": false
    },
    {
      "id": 50049,
      "content": "\\Vmatrix*",
      "single_word": false,
      "lstrip": false,
      "rstrip": false,
      "normalized": true,
      "special": false
    },
    {
      "id": 50050,
      "content": "\\underleftarrow",
      "single_word": false,
      "lstrip": false,
      "rstrip": false,
      "normalized": true,
      "special": false
    },
    {
      "id": 50051,
      "content": "\\Bigl",
      "single_word": false,
      "lstrip": false,
      "rstrip": false,
      "normalized": true,
      "special": false
    },
    {
      "id": 50052,
      "content": "\\sigma",
      "single_word": false,
      "lstrip": false,
      "rstrip": false,
      "normalized": true,
      "special": false
    },
    {
      "id": 50053,
      "content": "\\pmatrix*",
      "single_word": false,
      "lstrip": false,
      "rstrip": false,
      "normalized": true,
      "special": false
    },
    {
      "id": 50054,
      "content": "\\ln",
      "single_word": false,
      "lstrip": false,
      "rstrip": false,
      "normalized": true,
      "special": false
    },
    {
      "id": 50055,
      "content": "\\tau",
      "single_word": false,
      "lstrip": false,
      "rstrip": false,
      "normalized": true,
      "special": false
    },
    {
      "id": 50056,
      "content": "\\Biggr",
      "single_word": false,
      "lstrip": false,
      "rstrip": false,
      "normalized": true,
      "special": false
    },
    {
      "id": 50057,
      "content": "\\Rho",
      "single_word": false,
      "lstrip": false,
      "rstrip": false,
      "normalized": true,
      "special": false
    },
    {
      "id": 50058,
      "content": "\\acute",
      "single_word": false,
      "lstrip": false,
      "rstrip": false,
      "normalized": true,
      "special": false
    },
    {
      "id": 50059,
      "content": "\\Gamma",
      "single_word": false,
      "lstrip": false,
      "rstrip": false,
      "normalized": true,
      "special": false
    },
    {
      "id": 50060,
      "content": "\\mkern",
      "single_word": false,
      "lstrip": false,
      "rstrip": false,
      "normalized": true,
      "special": false
    },
    {
      "id": 50061,
      "content": "\\Iota",
      "single_word": false,
      "lstrip": false,
      "rstrip": false,
      "normalized": true,
      "special": false
    },
    {
      "id": 50062,
      "content": "\\mathscr",
      "single_word": false,
      "lstrip": false,
      "rstrip": false,
      "normalized": true,
      "special": false
    },
    {
      "id": 50063,
      "content": "\\quad",
      "single_word": false,
      "lstrip": false,
      "rstrip": false,
      "normalized": true,
      "special": false
    },
    {
      "id": 50064,
      "content": "\\>",
      "single_word": false,
      "lstrip": false,
      "rstrip": false,
      "normalized": true,
      "special": false
    },
    {
      "id": 50065,
      "content": "\\Bmatrix*",
      "single_word": false,
      "lstrip": false,
      "rstrip": false,
      "normalized": true,
      "special": false
    },
    {
      "id": 50066,
      "content": "\\Lambda",
      "single_word": false,
      "lstrip": false,
      "rstrip": false,
      "normalized": true,
      "special": false
    },
    {
      "id": 50067,
      "content": "\\sup",
      "single_word": false,
      "lstrip": false,
      "rstrip": false,
      "normalized": true,
      "special": false
    },
    {
      "id": 50068,
      "content": "\\Upsilon",
      "single_word": false,
      "lstrip": false,
      "rstrip": false,
      "normalized": true,
      "special": false
    },
    {
      "id": 50069,
      "content": "\\fbox",
      "single_word": false,
      "lstrip": false,
      "rstrip": false,
      "normalized": true,
      "special": false
    },
    {
      "id": 50070,
      "content": "\\overbrace",
      "single_word": false,
      "lstrip": false,
      "rstrip": false,
      "normalized": true,
      "special": false
    },
    {
      "id": 50071,
      "content": "\\Vmatrix",
      "single_word": false,
      "lstrip": false,
      "rstrip": false,
      "normalized": true,
      "special": false
    },
    {
      "id": 50072,
      "content": "\\Phi",
      "single_word": false,
      "lstrip": false,
      "rstrip": false,
      "normalized": true,
      "special": false
    },
    {
      "id": 50073,
      "content": "\\vphantom",
      "single_word": false,
      "lstrip": false,
      "rstrip": false,
      "normalized": true,
      "special": false
    },
    {
      "id": 50074,
      "content": "\\matrix",
      "single_word": false,
      "lstrip": false,
      "rstrip": false,
      "normalized": true,
      "special": false
    },
    {
      "id": 50075,
      "content": "\\middle",
      "single_word": false,
      "lstrip": false,
      "rstrip": false,
      "normalized": true,
      "special": false
    },
    {
      "id": 50076,
      "content": "\\href",
      "single_word": false,
      "lstrip": false,
      "rstrip": false,
      "normalized": true,
      "special": false
    },
    {
      "id": 50077,
      "content": "\\nu",
      "single_word": false,
      "lstrip": false,
      "rstrip": false,
      "normalized": true,
      "special": false
    },
    {
      "id": 50078,
      "content": "\\Psi",
      "single_word": false,
      "lstrip": false,
      "rstrip": false,
      "normalized": true,
      "special": false
    },
    {
      "id": 50079,
      "content": "\\pmatrix",
      "single_word": false,
      "lstrip": false,
      "rstrip": false,
      "normalized": true,
      "special": false
    },
    {
      "id": 50080,
      "content": "\\mathsf",
      "single_word": false,
      "lstrip": false,
      "rstrip": false,
      "normalized": true,
      "special": false
    },
    {
      "id": 50081,
      "content": "\\underset",
      "single_word": false,
      "lstrip": false,
      "rstrip": false,
      "normalized": true,
      "special": false
    },
    {
      "id": 50082,
      "content": "\\iota",
      "single_word": false,
      "lstrip": false,
      "rstrip": false,
      "normalized": true,
      "special": false
    },
    {
      "id": 50083,
      "content": "\\sec",
      "single_word": false,
      "lstrip": false,
      "rstrip": false,
      "normalized": true,
      "special": false
    },
    {
      "id": 50084,
      "content": "\\ker",
      "single_word": false,
      "lstrip": false,
      "rstrip": false,
      "normalized": true,
      "special": false
    },
    {
      "id": 50085,
      "content": "\\large",
      "single_word": false,
      "lstrip": false,
      "rstrip": false,
      "normalized": true,
      "special": false
    },
    {
      "id": 50086,
      "content": "\\rho",
      "single_word": false,
      "lstrip": false,
      "rstrip": false,
      "normalized": true,
      "special": false
    },
    {
      "id": 50087,
      "content": "\\min",
      "single_word": false,
      "lstrip": false,
      "rstrip": false,
      "normalized": true,
      "special": false
    },
    {
      "id": 50088,
      "content": "\\scriptsize",
      "single_word": false,
      "lstrip": false,
      "rstrip": false,
      "normalized": true,
      "special": false
    },
    {
      "id": 50089,
      "content": "\\breve",
      "single_word": false,
      "lstrip": false,
      "rstrip": false,
      "normalized": true,
      "special": false
    },
    {
      "id": 50090,
      "content": "\\alpha",
      "single_word": false,
      "lstrip": false,
      "rstrip": false,
      "normalized": true,
      "special": false
    },
    {
      "id": 50091,
      "content": "\\underrightarrow",
      "single_word": false,
      "lstrip": false,
      "rstrip": false,
      "normalized": true,
      "special": false
    },
    {
      "id": 50092,
      "content": "\\Bbb",
      "single_word": false,
      "lstrip": false,
      "rstrip": false,
      "normalized": true,
      "special": false
    },
    {
      "id": 50093,
      "content": "\\huge",
      "single_word": false,
      "lstrip": false,
      "rstrip": false,
      "normalized": true,
      "special": false
    },
    {
      "id": 50094,
      "content": "\\displaystyle",
      "single_word": false,
      "lstrip": false,
      "rstrip": false,
      "normalized": true,
      "special": false
    },
    {
      "id": 50095,
      "content": "\\arcsin",
      "single_word": false,
      "lstrip": false,
      "rstrip": false,
      "normalized": true,
      "special": false
    },
    {
      "id": 50096,
      "content": "\\lambda",
      "single_word": false,
      "lstrip": false,
      "rstrip": false,
      "normalized": true,
      "special": false
    },
    {
      "id": 50097,
      "content": "\\scr",
      "single_word": false,
      "lstrip": false,
      "rstrip": false,
      "normalized": true,
      "special": false
    },
    {
      "id": 50098,
      "content": "\\overline",
      "single_word": false,
      "lstrip": false,
      "rstrip": false,
      "normalized": true,
      "special": false
    },
    {
      "id": 50099,
      "content": "\\boxed",
      "single_word": false,
      "lstrip": false,
      "rstrip": false,
      "normalized": true,
      "special": false
    },
    {
      "id": 50100,
      "content": "\\biggl",
      "single_word": false,
      "lstrip": false,
      "rstrip": false,
      "normalized": true,
      "special": false
    },
    {
      "id": 50101,
      "content": "\\mathbf",
      "single_word": false,
      "lstrip": false,
      "rstrip": false,
      "normalized": true,
      "special": false
    },
    {
      "id": 50102,
      "content": "\\Bigr",
      "single_word": false,
      "lstrip": false,
      "rstrip": false,
      "normalized": true,
      "special": false
    },
    {
      "id": 50103,
      "content": "\\tbinom",
      "single_word": false,
      "lstrip": false,
      "rstrip": false,
      "normalized": true,
      "special": false
    },
    {
      "id": 50104,
      "content": "\\mit",
      "single_word": false,
      "lstrip": false,
      "rstrip": false,
      "normalized": true,
      "special": false
    },
    {
      "id": 50105,
      "content": "\\dddot",
      "single_word": false,
      "lstrip": false,
      "rstrip": false,
      "normalized": true,
      "special": false
    },
    {
      "id": 50106,
      "content": "\\bigm",
      "single_word": false,
      "lstrip": false,
      "rstrip": false,
      "normalized": true,
      "special": false
    },
    {
      "id": 50107,
      "content": "\\biggm",
      "single_word": false,
      "lstrip": false,
      "rstrip": false,
      "normalized": true,
      "special": false
    },
    {
      "id": 50108,
      "content": "\\vmatrix*",
      "single_word": false,
      "lstrip": false,
      "rstrip": false,
      "normalized": true,
      "special": false
    },
    {
      "id": 50109,
      "content": "\\psi",
      "single_word": false,
      "lstrip": false,
      "rstrip": false,
      "normalized": true,
      "special": false
    },
    {
      "id": 50110,
      "content": "\\textstyle",
      "single_word": false,
      "lstrip": false,
      "rstrip": false,
      "normalized": true,
      "special": false
    },
    {
      "id": 50111,
      "content": "\\Omicron",
      "single_word": false,
      "lstrip": false,
      "rstrip": false,
      "normalized": true,
      "special": false
    },
    {
      "id": 50112,
      "content": "\\limits",
      "single_word": false,
      "lstrip": false,
      "rstrip": false,
      "normalized": true,
      "special": false
    },
    {
      "id": 50113,
      "content": "\\tanh",
      "single_word": false,
      "lstrip": false,
      "rstrip": false,
      "normalized": true,
      "special": false
    },
    {
      "id": 50114,
      "content": "\\negthinspace",
      "single_word": false,
      "lstrip": false,
      "rstrip": false,
      "normalized": true,
      "special": false
    },
    {
      "id": 50115,
      "content": "\\sinh",
      "single_word": false,
      "lstrip": false,
      "rstrip": false,
      "normalized": true,
      "special": false
    },
    {
      "id": 50116,
      "content": "\\hbox",
      "single_word": false,
      "lstrip": false,
      "rstrip": false,
      "normalized": true,
      "special": false
    },
    {
      "id": 50117,
      "content": "\\bigg",
      "single_word": false,
      "lstrip": false,
      "rstrip": false,
      "normalized": true,
      "special": false
    },
    {
      "id": 50118,
      "content": "\\xleftarrow",
      "single_word": false,
      "lstrip": false,
      "rstrip": false,
      "normalized": true,
      "special": false
    },
    {
      "id": 50119,
      "content": "\\upsilon",
      "single_word": false,
      "lstrip": false,
      "rstrip": false,
      "normalized": true,
      "special": false
    },
    {
      "id": 50120,
      "content": "\\Omega",
      "single_word": false,
      "lstrip": false,
      "rstrip": false,
      "normalized": true,
      "special": false
    },
    {
      "id": 50121,
      "content": "\\Beta",
      "single_word": false,
      "lstrip": false,
      "rstrip": false,
      "normalized": true,
      "special": false
    },
    {
      "id": 50122,
      "content": "\\cos",
      "single_word": false,
      "lstrip": false,
      "rstrip": false,
      "normalized": true,
      "special": false
    },
    {
      "id": 50123,
      "content": "_^",
      "single_word": false,
      "lstrip": false,
      "rstrip": false,
      "normalized": true,
      "special": false
    },
    {
      "id": 50124,
      "content": "\\Bigg",
      "single_word": false,
      "lstrip": false,
      "rstrip": false,
      "normalized": true,
      "special": false
    },
    {
      "id": 50125,
      "content": "\\dfrac",
      "single_word": false,
      "lstrip": false,
      "rstrip": false,
      "normalized": true,
      "special": false
    },
    {
      "id": 50126,
      "content": "\\Huge",
      "single_word": false,
      "lstrip": false,
      "rstrip": false,
      "normalized": true,
      "special": false
    },
    {
      "id": 50127,
      "content": "\\Zeta",
      "single_word": false,
      "lstrip": false,
      "rstrip": false,
      "normalized": true,
      "special": false
    },
    {
      "id": 50128,
      "content": "\\texttt",
      "single_word": false,
      "lstrip": false,
      "rstrip": false,
      "normalized": true,
      "special": false
    },
    {
      "id": 50129,
      "content": "\\chi",
      "single_word": false,
      "lstrip": false,
      "rstrip": false,
      "normalized": true,
      "special": false
    },
    {
      "id": 50130,
      "content": "\\beta",
      "single_word": false,
      "lstrip": false,
      "rstrip": false,
      "normalized": true,
      "special": false
    },
    {
      "id": 50131,
      "content": "\\tilde",
      "single_word": false,
      "lstrip": false,
      "rstrip": false,
      "normalized": true,
      "special": false
    },
    {
      "id": 50132,
      "content": "\\kappa",
      "single_word": false,
      "lstrip": false,
      "rstrip": false,
      "normalized": true,
      "special": false
    },
    {
      "id": 50133,
      "content": "\\log",
      "single_word": false,
      "lstrip": false,
      "rstrip": false,
      "normalized": true,
      "special": false
    },
    {
      "id": 50134,
      "content": "\\bmod",
      "single_word": false,
      "lstrip": false,
      "rstrip": false,
      "normalized": true,
      "special": false
    },
    {
      "id": 50135,
      "content": "\\mathfrak",
      "single_word": false,
      "lstrip": false,
      "rstrip": false,
      "normalized": true,
      "special": false
    },
    {
      "id": 50136,
      "content": "\\bmatrix*",
      "single_word": false,
      "lstrip": false,
      "rstrip": false,
      "normalized": true,
      "special": false
    },
    {
      "id": 50137,
      "content": "\\arctan",
      "single_word": false,
      "lstrip": false,
      "rstrip": false,
      "normalized": true,
      "special": false
    },
    {
      "id": 50138,
      "content": "\\Sigma",
      "single_word": false,
      "lstrip": false,
      "rstrip": false,
      "normalized": true,
      "special": false
    },
    {
      "id": 50139,
      "content": "\\tt",
      "single_word": false,
      "lstrip": false,
      "rstrip": false,
      "normalized": true,
      "special": false
    },
    {
      "id": 50140,
      "content": "\\Tiny",
      "single_word": false,
      "lstrip": false,
      "rstrip": false,
      "normalized": true,
      "special": false
    },
    {
      "id": 50141,
      "content": "\\frac",
      "single_word": false,
      "lstrip": false,
      "rstrip": false,
      "normalized": true,
      "special": false
    },
    {
      "id": 50142,
      "content": "\\mathcal",
      "single_word": false,
      "lstrip": false,
      "rstrip": false,
      "normalized": true,
      "special": false
    },
    {
      "id": 50143,
      "content": "\\Large",
      "single_word": false,
      "lstrip": false,
      "rstrip": false,
      "normalized": true,
      "special": false
    },
    {
      "id": 50144,
      "content": "\\delta",
      "single_word": false,
      "lstrip": false,
      "rstrip": false,
      "normalized": true,
      "special": false
    },
    {
      "id": 50145,
      "content": "\\genfrac",
      "single_word": false,
      "lstrip": false,
      "rstrip": false,
      "normalized": true,
      "special": false
    },
    {
      "id": 50146,
      "content": "\\overrightarrow",
      "single_word": false,
      "lstrip": false,
      "rstrip": false,
      "normalized": true,
      "special": false
    },
    {
      "id": 50147,
      "content": "\\widehat",
      "single_word": false,
      "lstrip": false,
      "rstrip": false,
      "normalized": true,
      "special": false
    },
    {
      "id": 50148,
      "content": "\\cases",
      "single_word": false,
      "lstrip": false,
      "rstrip": false,
      "normalized": true,
      "special": false
    },
    {
      "id": 50149,
      "content": "\\Mu",
      "single_word": false,
      "lstrip": false,
      "rstrip": false,
      "normalized": true,
      "special": false
    },
    {
      "id": 50150,
      "content": "\\Biggm",
      "single_word": false,
      "lstrip": false,
      "rstrip": false,
      "normalized": true,
      "special": false
    },
    {
      "id": 50151,
      "content": "\\biggr",
      "single_word": false,
      "lstrip": false,
      "rstrip": false,
      "normalized": true,
      "special": false
    },
    {
      "id": 50152,
      "content": "\\overleftarrow",
      "single_word": false,
      "lstrip": false,
      "rstrip": false,
      "normalized": true,
      "special": false
    },
    {
      "id": 50153,
      "content": "\\Chi",
      "single_word": false,
      "lstrip": false,
      "rstrip": false,
      "normalized": true,
      "special": false
    },
    {
      "id": 50154,
      "content": "\\underline",
      "single_word": false,
      "lstrip": false,
      "rstrip": false,
      "normalized": true,
      "special": false
    },
    {
      "id": 50155,
      "content": "\\zeta",
      "single_word": false,
      "lstrip": false,
      "rstrip": false,
      "normalized": true,
      "special": false
    },
    {
      "id": 50156,
      "content": "\\pi",
      "single_word": false,
      "lstrip": false,
      "rstrip": false,
      "normalized": true,
      "special": false
    },
    {
      "id": 50157,
      "content": "\\Pi",
      "single_word": false,
      "lstrip": false,
      "rstrip": false,
      "normalized": true,
      "special": false
    },
    {
      "id": 50158,
      "content": "\\thinspace",
      "single_word": false,
      "lstrip": false,
      "rstrip": false,
      "normalized": true,
      "special": false
    },
    {
      "id": 50159,
      "content": "\\eta",
      "single_word": false,
      "lstrip": false,
      "rstrip": false,
      "normalized": true,
      "special": false
    },
    {
      "id": 50160,
      "content": "\\ddot",
      "single_word": false,
      "lstrip": false,
      "rstrip": false,
      "normalized": true,
      "special": false
    },
    {
      "id": 50161,
      "content": "\\pmod",
      "single_word": false,
      "lstrip": false,
      "rstrip": false,
      "normalized": true,
      "special": false
    },
    {
      "id": 50162,
      "content": "\\check",
      "single_word": false,
      "lstrip": false,
      "rstrip": false,
      "normalized": true,
      "special": false
    },
    {
      "id": 50163,
      "content": "\\Big",
      "single_word": false,
      "lstrip": false,
      "rstrip": false,
      "normalized": true,
      "special": false
    },
    {
      "id": 50164,
      "content": "\\coth",
      "single_word": false,
      "lstrip": false,
      "rstrip": false,
      "normalized": true,
      "special": false
    },
    {
      "id": 50165,
      "content": "\\Bigm",
      "single_word": false,
      "lstrip": false,
      "rstrip": false,
      "normalized": true,
      "special": false
    },
    {
      "id": 50166,
      "content": "\\substack",
      "single_word": false,
      "lstrip": false,
      "rstrip": false,
      "normalized": true,
      "special": false
    },
    {
      "id": 50167,
      "content": "\\Delta",
      "single_word": false,
      "lstrip": false,
      "rstrip": false,
      "normalized": true,
      "special": false
    },
    {
      "id": 50168,
      "content": "\\mathtt",
      "single_word": false,
      "lstrip": false,
      "rstrip": false,
      "normalized": true,
      "special": false
    },
    {
      "id": 50169,
      "content": "\\omega",
      "single_word": false,
      "lstrip": false,
      "rstrip": false,
      "normalized": true,
      "special": false
    },
    {
      "id": 50170,
      "content": "\\enspace",
      "single_word": false,
      "lstrip": false,
      "rstrip": false,
      "normalized": true,
      "special": false
    },
    {
      "id": 50171,
      "content": "\\textrm",
      "single_word": false,
      "lstrip": false,
      "rstrip": false,
      "normalized": true,
      "special": false
    },
    {
      "id": 50172,
      "content": "\\tiny",
      "single_word": false,
      "lstrip": false,
      "rstrip": false,
      "normalized": true,
      "special": false
    },
    {
      "id": 50173,
      "content": "\\text",
      "single_word": false,
      "lstrip": false,
      "rstrip": false,
      "normalized": true,
      "special": false
    },
    {
      "id": 50174,
      "content": "\\bmatrix",
      "single_word": false,
      "lstrip": false,
      "rstrip": false,
      "normalized": true,
      "special": false
    },
    {
      "id": 50175,
      "content": "\\mbox",
      "single_word": false,
      "lstrip": false,
      "rstrip": false,
      "normalized": true,
      "special": false
    },
    {
      "id": 50176,
      "content": "\\grave",
      "single_word": false,
      "lstrip": false,
      "rstrip": false,
      "normalized": true,
      "special": false
    },
    {
      "id": 50177,
      "content": "\\displaylines",
      "single_word": false,
      "lstrip": false,
      "rstrip": false,
      "normalized": true,
      "special": false
    },
    {
      "id": 50178,
      "content": "\\negmedspace",
      "single_word": false,
      "lstrip": false,
      "rstrip": false,
      "normalized": true,
      "special": false
    },
    {
      "id": 50179,
      "content": "\\smallmatrix",
      "single_word": false,
      "lstrip": false,
      "rstrip": false,
      "normalized": true,
      "special": false
    },
    {
      "id": 50180,
      "content": "\\textsf",
      "single_word": false,
      "lstrip": false,
      "rstrip": false,
      "normalized": true,
      "special": false
    },
    {
      "id": 50181,
      "content": "\\skew",
      "single_word": false,
      "lstrip": false,
      "rstrip": false,
      "normalized": true,
      "special": false
    },
    {
      "id": 50182,
      "content": "\\matrix*",
      "single_word": false,
      "lstrip": false,
      "rstrip": false,
      "normalized": true,
      "special": false
    },
    {
      "id": 50183,
      "content": "\\bigr",
      "single_word": false,
      "lstrip": false,
      "rstrip": false,
      "normalized": true,
      "special": false
    },
    {
      "id": 50184,
      "content": "\\binom",
      "single_word": false,
      "lstrip": false,
      "rstrip": false,
      "normalized": true,
      "special": false
    },
    {
      "id": 50185,
      "content": "\\theta",
      "single_word": false,
      "lstrip": false,
      "rstrip": false,
      "normalized": true,
      "special": false
    },
    {
      "id": 50186,
      "content": "\\dot",
      "single_word": false,
      "lstrip": false,
      "rstrip": false,
      "normalized": true,
      "special": false
    },
    {
      "id": 50187,
      "content": "\\qquad",
      "single_word": false,
      "lstrip": false,
      "rstrip": false,
      "normalized": true,
      "special": false
    },
    {
      "id": 50188,
      "content": "\\csc",
      "single_word": false,
      "lstrip": false,
      "rstrip": false,
      "normalized": true,
      "special": false
    },
    {
      "id": 50189,
      "content": "\\root",
      "single_word": false,
      "lstrip": false,
      "rstrip": false,
      "normalized": true,
      "special": false
    },
    {
      "id": 50190,
      "content": "\\underparen",
      "single_word": false,
      "lstrip": false,
      "rstrip": false,
      "normalized": true,
      "special": false
    },
    {
      "id": 50191,
      "content": "\\inf",
      "single_word": false,
      "lstrip": false,
      "rstrip": false,
      "normalized": true,
      "special": false
    },
    {
      "id": 50192,
      "content": "\\mathring",
      "single_word": false,
      "lstrip": false,
      "rstrip": false,
      "normalized": true,
      "special": false
    },
    {
      "id": 50193,
      "content": "\\mu",
      "single_word": false,
      "lstrip": false,
      "rstrip": false,
      "normalized": true,
      "special": false
    },
    {
      "id": 50194,
      "content": "\\scriptstyle",
      "single_word": false,
      "lstrip": false,
      "rstrip": false,
      "normalized": true,
      "special": false
    },
    {
      "id": 50195,
      "content": "\\hat",
      "single_word": false,
      "lstrip": false,
      "rstrip": false,
      "normalized": true,
      "special": false
    },
    {
      "id": 50196,
      "content": "\\cfrac",
      "single_word": false,
      "lstrip": false,
      "rstrip": false,
      "normalized": true,
      "special": false
    },
    {
      "id": 50197,
      "content": "\\epsilon",
      "single_word": false,
      "lstrip": false,
      "rstrip": false,
      "normalized": true,
      "special": false
    },
    {
      "id": 50198,
      "content": "\\oldstyle",
      "single_word": false,
      "lstrip": false,
      "rstrip": false,
      "normalized": true,
      "special": false
    },
    {
      "id": 50199,
      "content": "\\xi",
      "single_word": false,
      "lstrip": false,
      "rstrip": false,
      "normalized": true,
      "special": false
    },
    {
      "id": 50200,
      "content": "\\tfrac",
      "single_word": false,
      "lstrip": false,
      "rstrip": false,
      "normalized": true,
      "special": false
    },
    {
      "id": 50201,
      "content": "\\big",
      "single_word": false,
      "lstrip": false,
      "rstrip": false,
      "normalized": true,
      "special": false
    },
    {
      "id": 50202,
      "content": "\\mspace",
      "single_word": false,
      "lstrip": false,
      "rstrip": false,
      "normalized": true,
      "special": false
    },
    {
      "id": 50203,
      "content": "\\,",
      "single_word": false,
      "lstrip": false,
      "rstrip": false,
      "normalized": true,
      "special": false
    },
    {
      "id": 50204,
      "content": "\\scriptscriptstyle",
      "single_word": false,
      "lstrip": false,
      "rstrip": false,
      "normalized": true,
      "special": false
    },
    {
      "id": 50205,
      "content": "\\Alpha",
      "single_word": false,
      "lstrip": false,
      "rstrip": false,
      "normalized": true,
      "special": false
    },
    {
      "id": 50206,
      "content": "\\hom",
      "single_word": false,
      "lstrip": false,
      "rstrip": false,
      "normalized": true,
      "special": false
    },
    {
      "id": 50207,
      "content": "\\widetilde",
      "single_word": false,
      "lstrip": false,
      "rstrip": false,
      "normalized": true,
      "special": false
    },
    {
      "id": 50208,
      "content": "\\Theta",
      "single_word": false,
      "lstrip": false,
      "rstrip": false,
      "normalized": true,
      "special": false
    },
    {
      "id": 50209,
      "content": "\\split",
      "single_word": false,
      "lstrip": false,
      "rstrip": false,
      "normalized": true,
      "special": false
    },
    {
      "id": 50210,
      "content": "\\right",
      "single_word": false,
      "lstrip": false,
      "rstrip": false,
      "normalized": true,
      "special": false
    },
    {
      "id": 50211,
      "content": "\\ddddot",
      "single_word": false,
      "lstrip": false,
      "rstrip": false,
      "normalized": true,
      "special": false
    },
    {
      "id": 50212,
      "content": "\\lim",
      "single_word": false,
      "lstrip": false,
      "rstrip": false,
      "normalized": true,
      "special": false
    },
    {
      "id": 50213,
      "content": "\\hphantom",
      "single_word": false,
      "lstrip": false,
      "rstrip": false,
      "normalized": true,
      "special": false
    },
    {
      "id": 50214,
      "content": "\\:",
      "single_word": false,
      "lstrip": false,
      "rstrip": false,
      "normalized": true,
      "special": false
    },
    {
      "id": 50215,
      "content": "\\underbrace",
      "single_word": false,
      "lstrip": false,
      "rstrip": false,
      "normalized": true,
      "special": false
    },
    {
      "id": 50216,
      "content": "\\textit",
      "single_word": false,
      "lstrip": false,
      "rstrip": false,
      "normalized": true,
      "special": false
    },
    {
      "id": 50217,
      "content": "\\arccos",
      "single_word": false,
      "lstrip": false,
      "rstrip": false,
      "normalized": true,
      "special": false
    },
    {
      "id": 50218,
      "content": "\\Epsilon",
      "single_word": false,
      "lstrip": false,
      "rstrip": false,
      "normalized": true,
      "special": false
    },
    {
      "id": 50219,
      "content": "\\mathit",
      "single_word": false,
      "lstrip": false,
      "rstrip": false,
      "normalized": true,
      "special": false
    },
    {
      "id": 50220,
      "content": "\\boldsymbol",
      "single_word": false,
      "lstrip": false,
      "rstrip": false,
      "normalized": true,
      "special": false
    },
    {
      "id": 50221,
      "content": "\\Biggl",
      "single_word": false,
      "lstrip": false,
      "rstrip": false,
      "normalized": true,
      "special": false
    },
    {
      "id": 50222,
      "content": "\\mathrm",
      "single_word": false,
      "lstrip": false,
      "rstrip": false,
      "normalized": true,
      "special": false
    },
    {
      "id": 50223,
      "content": "\\lg",
      "single_word": false,
      "lstrip": false,
      "rstrip": false,
      "normalized": true,
      "special": false
    },
    {
      "id": 50224,
      "content": "\\Bmatrix",
      "single_word": false,
      "lstrip": false,
      "rstrip": false,
      "normalized": true,
      "special": false
    },
    {
      "id": 50225,
      "content": "\\hskip",
      "single_word": false,
      "lstrip": false,
      "rstrip": false,
      "normalized": true,
      "special": false
    },
    {
      "id": 50226,
      "content": "\\mod",
      "single_word": false,
      "lstrip": false,
      "rstrip": false,
      "normalized": true,
      "special": false
    },
    {
      "id": 50227,
      "content": "\\sin",
      "single_word": false,
      "lstrip": false,
      "rstrip": false,
      "normalized": true,
      "special": false
    },
    {
      "id": 50228,
      "content": "\\sideset",
      "single_word": false,
      "lstrip": false,
      "rstrip": false,
      "normalized": true,
      "special": false
    },
    {
      "id": 50229,
      "content": "\\deg",
      "single_word": false,
      "lstrip": false,
      "rstrip": false,
      "normalized": true,
      "special": false
    },
    {
      "id": 50230,
      "content": "\\xrightarrow",
      "single_word": false,
      "lstrip": false,
      "rstrip": false,
      "normalized": true,
      "special": false
    },
    {
      "id": 50231,
      "content": "\\bar",
      "single_word": false,
      "lstrip": false,
      "rstrip": false,
      "normalized": true,
      "special": false
    }
  ],
  "normalizer": {
    "type": "NFKC"
  },
  "pre_tokenizer": {
    "type": "Sequence",
    "pretokenizers": [
      {
        "type": "Split",
        "pattern": {
          "String": "SPL1T-TH1S-Pl3A5E"
        },
        "behavior": "Removed",
        "invert": false
      },
      {
        "type": "Digits",
        "individual_digits": true
      },
      {
        "type": "Split",
        "pattern": {
          "Regex": "[\\(\\)\\[\\]\\{\\}]|([!\"\\#\\$%\\&'\\*\\+,\\-\\./:;<=>\\?\\\\\\^_`\\|\\~])\\1*"
        },
        "behavior": "Isolated",
        "invert": false
      },
      {
        "type": "Split",
        "pattern": {
          "String": "\n"
        },
        "behavior": "Isolated",
        "invert": false
      },
      {
        "type": "ByteLevel",
        "add_prefix_space": false,
        "trim_offsets": true,
        "use_regex": true
      }
    ]
  },
  "post_processor": {
    "type": "TemplateProcessing",
    "single": [
      {
        "SpecialToken": {
          "id": "<s>",
          "type_id": 0
        }
      },
      {
        "Sequence": {
          "id": "A",
          "type_id": 0
        }
      },
      {
        "SpecialToken": {
          "id": "</s>",
          "type_id": 0
        }
      }
    ],
    "pair": [
      {
        "Sequence": {
          "id": "A",
          "type_id": 0
        }
      },
      {
        "Sequence": {
          "id": "B",
          "type_id": 1
        }
      }
    ],
    "special_tokens": {
      "</s>": {
        "id": "</s>",
        "ids": [
          2
        ],
        "tokens": [
          "</s>"
        ]
      },
      "<s>": {
        "id": "<s>",
        "ids": [
          0
        ],
        "tokens": [
          "<s>"
        ]
      }
    }
  },
  "decoder": {
    "type": "ByteLevel",
    "add_prefix_space": true,
    "trim_offsets": true,
    "use_regex": true
  },
  "model": {
    "type": "BPE",
    "dropout": null,
    "unk_token": null,
    "continuing_subword_prefix": null,
    "end_of_word_suffix": null,
    "fuse_unk": false,
    "byte_fallback": false,
    "vocab": {
      "<s>": 0,
      "<pad>": 1,
      "</s>": 2,
      "<unk>": 3,
      "[START_REF]": 4,
      "[END_REF]": 5,
      "[IMAGE]": 6,
      "<fragments>": 7,
      "</fragments>": 8,
      "<work>": 9,
      "</work>": 10,
      "[START_SUP]": 11,
      "[END_SUP]": 12,
      "[START_SUB]": 13,
      "[END_SUB]": 14,
      "[START_DNA]": 15,
      "[END_DNA]": 16,
      "[START_AMINO]": 17,
      "[END_AMINO]": 18,
      "[START_SMILES]": 19,
      "[END_SMILES]": 20,
      "[START_I_SMILES]": 21,
      "[END_I_SMILES]": 22,
      "!": 23,
      "\"": 24,
      "#": 25,
      "$": 26,
      "%": 27,
      "&": 28,
      "'": 29,
      "(": 30,
      ")": 31,
      "*": 32,
      "+": 33,
      ",": 34,
      "-": 35,
      ".": 36,
      "/": 37,
      "0": 38,
      "1": 39,
      "2": 40,
      "3": 41,
      "4": 42,
      "5": 43,
      "6": 44,
      "7": 45,
      "8": 46,
      "9": 47,
      ":": 48,
      ";": 49,
      "<": 50,
      "=": 51,
      ">": 52,
      "?": 53,
      "@": 54,
      "A": 55,
      "B": 56,
      "C": 57,
      "D": 58,
      "E": 59,
      "F": 60,
      "G": 61,
      "H": 62,
      "I": 63,
      "J": 64,
      "K": 65,
      "L": 66,
      "M": 67,
      "N": 68,
      "O": 69,
      "P": 70,
      "Q": 71,
      "R": 72,
      "S": 73,
      "T": 74,
      "U": 75,
      "V": 76,
      "W": 77,
      "X": 78,
      "Y": 79,
      "Z": 80,
      "[": 81,
      "\\": 82,
      "]": 83,
      "^": 84,
      "_": 85,
      "`": 86,
      "a": 87,
      "b": 88,
      "c": 89,
      "d": 90,
      "e": 91,
      "f": 92,
      "g": 93,
      "h": 94,
      "i": 95,
      "j": 96,
      "k": 97,
      "l": 98,
      "m": 99,
      "n": 100,
      "o": 101,
      "p": 102,
      "q": 103,
      "r": 104,
      "s": 105,
      "t": 106,
      "u": 107,
      "v": 108,
      "w": 109,
      "x": 110,
      "y": 111,
      "z": 112,
      "{": 113,
      "|": 114,
      "}": 115,
      "~": 116,
      "¡": 117,
      "¢": 118,
      "£": 119,
      "¤": 120,
      "¥": 121,
      "¦": 122,
      "§": 123,
      "¨": 124,
      "©": 125,
      "ª": 126,
      "«": 127,
      "¬": 128,
      "®": 129,
      "¯": 130,
      "°": 131,
      "±": 132,
      "²": 133,
      "³": 134,
      "´": 135,
      "µ": 136,
      "¶": 137,
      "·": 138,
      "¸": 139,
      "¹": 140,
      "º": 141,
      "»": 142,
      "¼": 143,
      "½": 144,
      "¾": 145,
      "¿": 146,
      "À": 147,
      "Á": 148,
      "Â": 149,
      "Ã": 150,
      "Ä": 151,
      "Å": 152,
      "Æ": 153,
      "Ç": 154,
      "È": 155,
      "É": 156,
      "Ê": 157,
      "Ë": 158,
      "Ì": 159,
      "Í": 160,
      "Î": 161,
      "Ï": 162,
      "Ð": 163,
      "Ñ": 164,
      "Ò": 165,
      "Ó": 166,
      "Ô": 167,
      "Õ": 168,
      "Ö": 169,
      "×": 170,
      "Ø": 171,
      "Ù": 172,
      "Ú": 173,
      "Û": 174,
      "Ü": 175,
      "Ý": 176,
      "Þ": 177,
      "ß": 178,
      "à": 179,
      "á": 180,
      "â": 181,
      "ã": 182,
      "ä": 183,
      "å": 184,
      "æ": 185,
      "ç": 186,
      "è": 187,
      "é": 188,
      "ê": 189,
      "ë": 190,
      "ì": 191,
      "í": 192,
      "î": 193,
      "ï": 194,
      "ð": 195,
      "ñ": 196,
      "ò": 197,
      "ó": 198,
      "ô": 199,
      "õ": 200,
      "ö": 201,
      "÷": 202,
      "ø": 203,
      "ù": 204,
      "ú": 205,
      "û": 206,
      "ü": 207,
      "ý": 208,
      "þ": 209,
      "ÿ": 210,
      "Ā": 211,
      "ā": 212,
      "Ă": 213,
      "ă": 214,
      "Ą": 215,
      "ą": 216,
      "Ć": 217,
      "ć": 218,
      "Ĉ": 219,
      "ĉ": 220,
      "Ċ": 221,
      "ċ": 222,
      "Č": 223,
      "č": 224,
      "Ď": 225,
      "ď": 226,
      "Đ": 227,
      "đ": 228,
      "Ē": 229,
      "ē": 230,
      "Ĕ": 231,
      "ĕ": 232,
      "Ė": 233,
      "ė": 234,
      "Ę": 235,
      "ę": 236,
      "Ě": 237,
      "ě": 238,
      "Ĝ": 239,
      "ĝ": 240,
      "Ğ": 241,
      "ğ": 242,
      "Ġ": 243,
      "ġ": 244,
      "Ģ": 245,
      "ģ": 246,
      "Ĥ": 247,
      "ĥ": 248,
      "Ħ": 249,
      "ħ": 250,
      "Ĩ": 251,
      "ĩ": 252,
      "Ī": 253,
      "ī": 254,
      "Ĭ": 255,
      "ĭ": 256,
      "Į": 257,
      "į": 258,
      "İ": 259,
      "ı": 260,
      "Ĳ": 261,
      "ĳ": 262,
      "Ĵ": 263,
      "ĵ": 264,
      "Ķ": 265,
      "ķ": 266,
      "ĸ": 267,
      "Ĺ": 268,
      "ĺ": 269,
      "Ļ": 270,
      "ļ": 271,
      "Ľ": 272,
      "ľ": 273,
      "Ŀ": 274,
      "ŀ": 275,
      "Ł": 276,
      "ł": 277,
      "Ń": 278,
      "Ġt": 279,
      "in": 280,
      "Ġa": 281,
      "he": 282,
      "on": 283,
      "re": 284,
      "at": 285,
      "Ġthe": 286,
      "er": 287,
      "Ġs": 288,
      "Ġo": 289,
      "en": 290,
      "al": 291,
      "Ġc": 292,
      "ti": 293,
      "or": 294,
      "ed": 295,
      "es": 296,
      "is": 297,
      "Ġp": 298,
      "Ġof": 299,
      "nd": 300,
      "Ġin": 301,
      "Ġf": 302,
      "Ġw": 303,
      "ĠĠ": 304,
      "it": 305,
      "an": 306,
      "ro": 307,
      "ar": 308,
      "Ġd": 309,
      "Ġm": 310,
      "Ġb": 311,
      "Ġand": 312,
      "ic": 313,
      "le": 314,
      "ing": 315,
      "ion": 316,
      "as": 317,
      "Ġe": 318,
      "Ġre": 319,
      "ation": 320,
      "Ġto": 321,
      "el": 322,
      "ent": 323,
      "ac": 324,
      "et": 325,
      "ec": 326,
      "tion": 327,
      "om": 328,
      "st": 329,
      "ĠT": 330,
      "Ġn": 331,
      "Ġth": 332,
      "ol": 333,
      "ul": 334,
      "im": 335,
      "RE": 336,
      "ig": 337,
      "us": 338,
      "REF": 339,
      "Ġl": 340,
      "Ġh": 341,
      "ur": 342,
      "Ġis": 343,
      "ĠĠĠĠ": 344,
      "Ġfor": 345,
      "id": 346,
      "am": 347,
      "ĠS": 348,
      "ve": 349,
      "il": 350,
      "ĠA": 351,
      "ĠC": 352,
      "Ġg": 353,
      "ot": 354,
      "ith": 355,
      "ly": 356,
      "ce": 357,
      "Ġcon": 358,
      "ow": 359,
      "Ġst": 360,
      "ut": 361,
      "os": 362,
      "Ġwith": 363,
      "od": 364,
      "ra": 365,
      "Ġv": 366,
      "Ġpro": 367,
      "um": 368,
      "ĠI": 369,
      "if": 370,
      "uc": 371,
      "ter": 372,
      "un": 373,
      "AR": 374,
      "ST": 375,
      "res": 376,
      "Ġon": 377,
      "EN": 378,
      "ere": 379,
      "ĠP": 380,
      "ĠThe": 381,
      "ĠM": 382,
      "Ġas": 383,
      "ART": 384,
      "Ġan": 385,
      "END": 386,
      "START": 387,
      "Ġthat": 388,
      "qu": 389,
      "em": 390,
      "Ġbe": 391,
      "Ġex": 392,
      "ri": 393,
      "ab": 394,
      "ity": 395,
      "tic": 396,
      "ver": 397,
      "Ġal": 398,
      "pl": 399,
      "ts": 400,
      "ĠF": 401,
      "Ġâ": 402,
      "ure": 403,
      "Ġby": 404,
      "ate": 405,
      "ag": 406,
      "ir": 407,
      "oc": 408,
      "per": 409,
      "ĠB": 410,
      "ay": 411,
      "ĠD": 412,
      "Ġcom": 413,
      "ĠH": 414,
      "ated": 415,
      "ĠR": 416,
      "Ġare": 417,
      "rom": 418,
      "ĠE": 419,
      "op": 420,
      "ad": 421,
      "se": 422,
      "ĠL": 423,
      "igh": 424,
      "ĠN": 425,
      "ment": 426,
      "her": 427,
      "og": 428,
      "ain": 429,
      "ect": 430,
      "ud": 431,
      "Ġde": 432,
      "Ġr": 433,
      "Ġat": 434,
      "Ġwas": 435,
      "Ġus": 436,
      "Ġres": 437,
      "ell": 438,
      "iz": 439,
      "ine": 440,
      "ph": 441,
      "Ġac": 442,
      "ess": 443,
      "ore": 444,
      "ical": 445,
      "th": 446,
      "und": 447,
      "rac": 448,
      "Ġwe": 449,
      "ath": 450,
      "ĠG": 451,
      "Ġfrom": 452,
      "ati": 453,
      "up": 454,
      "ist": 455,
      "ant": 456,
      "Ġor": 457,
      "ff": 458,
      "Ġcomp": 459,
      "Ġwh": 460,
      "ĠW": 461,
      "ch": 462,
      "ers": 463,
      "Ġsp": 464,
      "orm": 465,
      "Ġch": 466,
      "ations": 467,
      "ran": 468,
      "ub": 469,
      "te": 470,
      "di": 471,
      "Ġsh": 472,
      "ge": 473,
      "ase": 474,
      "Ġwere": 475,
      "ĠĠĠĠĠĠĠĠ": 476,
      "ĠÎ": 477,
      "ap": 478,
      "ĠIn": 479,
      "and": 480,
      "Ġse": 481,
      "vel": 482,
      "Ġim": 483,
      "ĠâĪ": 484,
      "ens": 485,
      "ies": 486,
      "ich": 487,
      "ight": 488,
      "duc": 489,
      "ĠO": 490,
      "Ġit": 491,
      "tions": 492,
      "end": 493,
      "Ġco": 494,
      "Ġthis": 495,
      "Ġcan": 496,
      "Ġk": 497,
      "âĢ": 498,
      "lec": 499,
      "ted": 500,
      "Ġmod": 501,
      "math": 502,
      "Ġcont": 503,
      "Ġne": 504,
      "Ġpar": 505,
      "ib": 506,
      "ĠĠĠ": 507,
      "Ġle": 508,
      "iv": 509,
      "ug": 510,
      "ence": 511,
      "ign": 512,
      "ous": 513,
      "ents": 514,
      "ys": 515,
      "ave": 516,
      "red": 517,
      "ress": 518,
      "able": 519,
      "por": 520,
      "all": 521,
      "iff": 522,
      "est": 523,
      "Ġap": 524,
      "Ġinc": 525,
      "nt": 526,
      "ary": 527,
      "iti": 528,
      "Ġwhich": 529,
      "Ġnot": 530,
      "form": 531,
      "Ġsy": 532,
      "Ġad": 533,
      "low": 534,
      "ak": 535,
      "Ġper": 536,
      "Ġhe": 537,
      "pro": 538,
      "ance": 539,
      "ial": 540,
      "ue": 541,
      "Ġen": 542,
      "Ġcl": 543,
      "ass": 544,
      "ip": 545,
      "rans": 546,
      "Ġob": 547,
      "Ġgen": 548,
      "tim": 549,
      "Ġdis": 550,
      "unc": 551,
      "Ġint": 552,
      "ep": 553,
      "etw": 554,
      "Ġdiff": 555,
      "ach": 556,
      "ther": 557,
      "ime": 558,
      "age": 559,
      "ple": 560,
      "ill": 561,
      "yp": 562,
      "ĠK": 563,
      "act": 564,
      "ari": 565,
      "Ġmet": 566,
      "ors": 567,
      "Ġhave": 568,
      "Ġstud": 569,
      "ong": 570,
      "ĠU": 571,
      "Ġpl": 572,
      "ide": 573,
      "ma": 574,
      "hen": 575,
      "ific": 576,
      "ome": 577,
      "Ġi": 578,
      "ular": 579,
      "ĠV": 580,
      "ally": 581,
      "Ġshow": 582,
      "rib": 583,
      "ia": 584,
      "enti": 585,
      "Ġass": 586,
      "ond": 587,
      "ft": 588,
      "Ġab": 589,
      "Ġinter": 590,
      "ĠTh": 591,
      "The": 592,
      "str": 593,
      "Ġcell": 594,
      "cal": 595,
      "Ġmodel": 596,
      "ata": 597,
      "ast": 598,
      "Ġeff": 599,
      "Ġtrans": 600,
      "ates": 601,
      "ased": 602,
      "ost": 603,
      "vi": 604,
      "ang": 605,
      "our": 606,
      "Ġme": 607,
      "ard": 608,
      "Ġdiffere": 609,
      "Ġpre": 610,
      "Ġdi": 611,
      "ĠâĪĴ": 612,
      "olog": 613,
      "ution": 614,
      "ound": 615,
      "ace": 616,
      "Ġresul": 617,
      "erm": 618,
      "pos": 619,
      "here": 620,
      "tive": 621,
      "ord": 622,
      "so": 623,
      "stem": 624,
      "yl": 625,
      "Ġph": 626,
      "Ġy": 627,
      "ame": 628,
      "ork": 629,
      "ative": 630,
      "Ġqu": 631,
      "ric": 632,
      "SU": 633,
      "wo": 634,
      "Ġun": 635,
      "Ġev": 636,
      "are": 637,
      "##": 638,
      "de": 639,
      "een": 640,
      "tiv": 641,
      "Ġgro": 642,
      "ory": 643,
      "Ġcons": 644,
      "Ġsub": 645,
      "ta": 646,
      "--": 647,
      "Ġstr": 648,
      "ber": 649,
      "erv": 650,
      "etween": 651,
      "enc": 652,
      "Ġanal": 653,
      "int": 654,
      "Ġhas": 655,
      "uch": 656,
      "Ġreg": 657,
      "Ġbetween": 658,
      "Ġdet": 659,
      "Ġall": 660,
      "cess": 661,
      "Ġexp": 662,
      "ection": 663,
      "ĠâĢ": 664,
      "ind": 665,
      "ater": 666,
      "Ġsign": 667,
      "pt": 668,
      "ugh": 669,
      "ite": 670,
      "ility": 671,
      "Ġusing": 672,
      "Ġval": 673,
      "Ġro": 674,
      "ree": 675,
      "Ġrel": 676,
      "out": 677,
      "Ġfunc": 678,
      "ition": 679,
      "Ġcor": 680,
      "Ġalso": 681,
      "Ġtwo": 682,
      "ne": 683,
      "ĠJ": 684,
      "Ġsystem": 685,
      "cl": 686,
      "uct": 687,
      "Ġsim": 688,
      "tain": 689,
      "ust": 690,
      "ied": 691,
      "port": 692,
      "Ġrec": 693,
      "Ġresp": 694,
      "Ġdata": 695,
      "rm": 696,
      "resent": 697,
      "uld": 698,
      "xt": 699,
      "Ġj": 700,
      "ry": 701,
      "ack": 702,
      "Ġra": 703,
      "par": 704,
      "Ġform": 705,
      "Ġsc": 706,
      "frac": 707,
      "ĠWe": 708,
      "ating": 709,
      "ech": 710,
      "hod": 711,
      "Ġfol": 712,
      "ined": 713,
      "ĠSt": 714,
      "ual": 715,
      "Ġused": 716,
      "Ġone": 717,
      "Ġdes": 718,
      "ĠÏ": 719,
      "Ġvari": 720,
      "Ġdist": 721,
      "Ġnum": 722,
      "ym": 723,
      "ew": 724,
      "rec": 725,
      "ob": 726,
      "Ġinf": 727,
      "Ġar": 728,
      "lect": 729,
      "ll": 730,
      "ons": 731,
      "ĠThis": 732,
      "ose": 733,
      "ile": 734,
      "play": 735,
      "ear": 736,
      "ox": 737,
      "ures": 738,
      "one": 739,
      "Ġstudy": 740,
      "ysis": 741,
      "Ġfollow": 742,
      "yle": 743,
      "ract": 744,
      "dis": 745,
      "Ġpos": 746,
      "right": 747,
      "Ġthan": 748,
      "ros": 749,
      "av": 750,
      "Fig": 751,
      "Ġtime": 752,
      "ization": 753,
      "ulation": 754,
      "ized": 755,
      "Ġsur": 756,
      "oth": 757,
      "Ġout": 758,
      "Ġcol": 759,
      "ature": 760,
      "ive": 761,
      "Ġsol": 762,
      "Ġx": 763,
      "eld": 764,
      "Ġother": 765,
      "plic": 766,
      "Ġdef": 767,
      "erg": 768,
      "Ġgener": 769,
      "ely": 770,
      "Ġbeen": 771,
      "Ġincre": 772,
      "Ġthese": 773,
      "Ġno": 774,
      "ax": 775,
      "style": 776,
      "arg": 777,
      "ian": 778,
      "Ġind": 779,
      "Ġsuch": 780,
      "Ġfunction": 781,
      "ting": 782,
      "Ġequ": 783,
      "aus": 784,
      "Ġund": 785,
      "mathb": 786,
      "tical": 787,
      "Ġhigh": 788,
      "rain": 789,
      "Ġam": 790,
      "ield": 791,
      "oun": 792,
      "ression": 793,
      "Ġspec": 794,
      "Ġop": 795,
      "Ġdec": 796,
      "Ġover": 797,
      "Ġmethod": 798,
      "Ġset": 799,
      "âĪ": 800,
      "Ġif": 801,
      "dition": 802,
      "ues": 803,
      "ects": 804,
      "display": 805,
      "hem": 806,
      "Ġpati": 807,
      "Ġresults": 808,
      "old": 809,
      "anc": 810,
      "displaystyle": 811,
      "Ġeach": 812,
      "Ġmore": 813,
      "les": 814,
      "pr": 815,
      "acter": 816,
      "Ġtheir": 817,
      "Ġacc": 818,
      "Ġappro": 819,
      "iss": 820,
      "ize": 821,
      "Ġinv": 822,
      "ases": 823,
      "Ġcells": 824,
      "irst": 825,
      "lu": 826,
      "ail": 827,
      "Ġmeas": 828,
      "Ġlow": 829,
      "ov": 830,
      "the": 831,
      "ik": 832,
      "**": 833,
      "ef": 834,
      "Ġbut": 835,
      "hes": 836,
      "fter": 837,
      "Ġdifferent": 838,
      "vely": 839,
      "Ġext": 840,
      "Ġthere": 841,
      "oci": 842,
      "Ġprob": 843,
      "Ġits": 844,
      "ron": 845,
      "ments": 846,
      "Ġag": 847,
      "NA": 848,
      "Ġpo": 849,
      "ice": 850,
      "ype": 851,
      "Ġgroup": 852,
      "âĢĵ": 853,
      "ever": 854,
      "ult": 855,
      "ism": 856,
      "tern": 857,
      "ability": 858,
      "ions": 859,
      "ark": 860,
      "Ġnon": 861,
      "to": 862,
      "ĠĠĠĠĠĠĠ": 863,
      "Ġobs": 864,
      "Ġtre": 865,
      "als": 866,
      "left": 867,
      "ĠPro": 868,
      "Ġonly": 869,
      "Ġman": 870,
      "der": 871,
      "Ġpol": 872,
      "uring": 873,
      "amet": 874,
      "rol": 875,
      "In": 876,
      "yn": 877,
      "Ġunder": 878,
      "ĠCh": 879,
      "Ġwhere": 880,
      "ood": 881,
      "ĠX": 882,
      "nce": 883,
      "Ġpartic": 884,
      "ected": 885,
      "ĠFig": 886,
      "Ġem": 887,
      "Ġfact": 888,
      "ĠAn": 889,
      "Ġperform": 890,
      "Ġso": 891,
      "Ġanalysis": 892,
      "stract": 893,
      "hed": 894,
      "Ġmay": 895,
      "atic": 896,
      "Ġrep": 897,
      "tein": 898,
      "duced": 899,
      "Ġup": 900,
      "Ġinto": 901,
      "Ġnumber": 902,
      "Ġour": 903,
      "Ġet": 904,
      "eg": 905,
      "itle": 906,
      "over": 907,
      "ix": 908,
      "ator": 909,
      "ulti": 910,
      "Ġincl": 911,
      "ould": 912,
      "ici": 913,
      "bstract": 914,
      "Ġcomple": 915,
      "Ġpatients": 916,
      "Ġdo": 917,
      "Ġexper": 918,
      "vid": 919,
      "ange": 920,
      "Ġlevel": 921,
      "Ġprocess": 922,
      "mathcal": 923,
      "ps": 924,
      "Ġsignific": 925,
      "Ġsam": 926,
      "Title": 927,
      "Ġbl": 928,
      "Ġstruct": 929,
      "eta": 930,
      "Ġobserv": 931,
      "raph": 932,
      "gr": 933,
      "Ġactiv": 934,
      "Ġfirst": 935,
      "velop": 936,
      "gen": 937,
      "ible": 938,
      "Ġsm": 939,
      "Ġwill": 940,
      "ĠQ": 941,
      "Ġmeasure": 942,
      "put": 943,
      "Ġloc": 944,
      "Ġmo": 945,
      "vers": 946,
      "of": 947,
      "tal": 948,
      "ered": 949,
      "own": 950,
      "Ġmat": 951,
      "ities": 952,
      "til": 953,
      "inal": 954,
      "Ġcar": 955,
      "pha": 956,
      "Ġboth": 957,
      "Ġcur": 958,
      "SUB": 959,
      "its": 960,
      "rel": 961,
      "Ġwhen": 962,
      "Ġz": 963,
      "Ġchar": 964,
      "Ġbi": 965,
      "cent": 966,
      "Ġthen": 967,
      "ise": 968,
      "owever": 969,
      "Ġmin": 970,
      "ĠFor": 971,
      "ĠY": 972,
      "ption": 973,
      "Ġes": 974,
      "mun": 975,
      "Ġinclud": 976,
      "istic": 977,
      "con": 978,
      "Ġobtain": 979,
      "ared": 980,
      "duction": 981,
      "Ġsignificant": 982,
      "ĠZ": 983,
      "Ġpresent": 984,
      "ann": 985,
      "Ġid": 986,
      "ency": 987,
      "Ġver": 988,
      "val": 989,
      "yd": 990,
      "rough": 991,
      "SUP": 992,
      "fore": 993,
      "Ġsome": 994,
      "ĠAs": 995,
      "Ġsup": 996,
      "Ġafter": 997,
      "ological": 998,
      "entif": 999,
      "Ġcase": 1000,
      "Ġsec": 1001,
      "elf": 1002,
      "Ġdep": 1003,
      "ks": 1004,
      "Ġcal": 1005,
      "ved": 1006,
      "Ġtem": 1007,
      "Ġuse": 1008,
      "ĠCom": 1009,
      "lam": 1010,
      "ines": 1011,
      "ays": 1012,
      "Ġgiv": 1013,
      "Ġconsid": 1014,
      "Ġelect": 1015,
      "ational": 1016,
      "ĠĠĠĠĠĠĠĠĠĠĠĠĠĠĠĠ": 1017,
      "iqu": 1018,
      "ties": 1019,
      "Ġline": 1020,
      "Ġsu": 1021,
      "Abstract": 1022,
      "ount": 1023,
      "Ġdevelop": 1024,
      "ĠCon": 1025,
      "ology": 1026,
      "alpha": 1027,
      "ans": 1028,
      "prime": 1029,
      "cc": 1030,
      "ogen": 1031,
      "Ġwork": 1032,
      "ven": 1033,
      "ium": 1034,
      "ective": 1035,
      "Ġpa": 1036,
      "ten": 1037,
      "ĠAl": 1038,
      "Ġï": 1039,
      "Ġfe": 1040,
      "âĢĻ": 1041,
      "ential": 1042,
      "line": 1043,
      "Ġparamet": 1044,
      "Ġprotein": 1045,
      "Ġdisc": 1046,
      "face": 1047,
      "ces": 1048,
      "Ġwell": 1049,
      "ural": 1050,
      "eng": 1051,
      "Ġduring": 1052,
      "row": 1053,
      "ants": 1054,
      "Ġrem": 1055,
      "formation": 1056,
      "Ġexam": 1057,
      "Ġmic": 1058,
      "âĪĴ": 1059,
      "lem": 1060,
      "ergy": 1061,
      "Ġassoci": 1062,
      "ĠÃ": 1063,
      "rop": 1064,
      "Ġfield": 1065,
      "ty": 1066,
      "Ġclass": 1067,
      "Ġu": 1068,
      "ie": 1069,
      "Ġbec": 1070,
      "Ġexperim": 1071,
      "sp": 1072,
      "Ġpr": 1073,
      "ilar": 1074,
      "tial": 1075,
      "Ġconst": 1076,
      "ĠIt": 1077,
      "Ġcontrol": 1078,
      "da": 1079,
      "Ġmulti": 1080,
      "itive": 1081,
      "ics": 1082,
      "urn": 1083,
      "Ġindic": 1084,
      "Ġfound": 1085,
      "text": 1086,
      "Ġnew": 1087,
      "Ġref": 1088,
      "gor": 1089,
      "rap": 1090,
      "Ġdesc": 1091,
      "Ġsame": 1092,
      "Ġfollowing": 1093,
      "Ġdistrib": 1094,
      "Figure": 1095,
      "ild": 1096,
      "Ġanti": 1097,
      "etwork": 1098,
      "ove": 1099,
      "Ġthrough": 1100,
      "Ġmost": 1101,
      "cer": 1102,
      "Ġdeterm": 1103,
      "ha": 1104,
      "elta": 1105,
      "arge": 1106,
      "Ġshown": 1107,
      "ince": 1108,
      "Ġany": 1109,
      "ren": 1110,
      "dot": 1111,
      "ral": 1112,
      "ration": 1113,
      "amma": 1114,
      "oid": 1115,
      "Ġmed": 1116,
      "ension": 1117,
      "art": 1118,
      "Ġpred": 1119,
      "met": 1120,
      "mathbb": 1121,
      "ake": 1122,
      "Ġcalc": 1123,
      "Ġhig": 1124,
      "Ġthree": 1125,
      "Ġbased": 1126,
      "mon": 1127,
      "arch": 1128,
      "----": 1129,
      "ples": 1130,
      "ages": 1131,
      "ause": 1132,
      "ish": 1133,
      "tively": 1134,
      "qui": 1135,
      "resp": 1136,
      "Ġcharacter": 1137,
      "ock": 1138,
      "Ġtreat": 1139,
      "Ġproper": 1140,
      "ex": 1141,
      "Ġsmall": 1142,
      "Ġterm": 1143,
      "bda": 1144,
      "Ġkn": 1145,
      "ode": 1146,
      "ings": 1147,
      "Ġexpression": 1148,
      "Ġmon": 1149,
      "emb": 1150,
      "ute": 1151,
      "echn": 1152,
      "hib": 1153,
      "Ġdirec": 1154,
      "ination": 1155,
      "ithm": 1156,
      "ulated": 1157,
      "Ġcy": 1158,
      "Ġpot": 1159,
      "Ġorder": 1160,
      "ote": 1161,
      "ically": 1162,
      "Ġvalues": 1163,
      "ort": 1164,
      "urther": 1165,
      "cept": 1166,
      "ynam": 1167,
      "ough": 1168,
      "echan": 1169,
      "Ġâī": 1170,
      "ok": 1171,
      "ement": 1172,
      "ĠÎ¼": 1173,
      "Ġestim": 1174,
      "Ġeffect": 1175,
      "Ġpath": 1176,
      "Ġconf": 1177,
      "Ġapp": 1178,
      "Ġgiven": 1179,
      "Ġend": 1180,
      "set": 1181,
      "Ġgl": 1182,
      "Ġthey": 1183,
      "ning": 1184,
      "Ġtest": 1185,
      "Ġtemper": 1186,
      "ves": 1187,
      "Ġvalue": 1188,
      "ited": 1189,
      "ality": 1190,
      "Ġlim": 1191,
      "Ġspect": 1192,
      "ently": 1193,
      "tit": 1194,
      "Ġsequ": 1195,
      "Ġidentif": 1196,
      "//": 1197,
      "igma": 1198,
      "Ġenergy": 1199,
      "inc": 1200,
      "ness": 1201,
      "ensity": 1202,
      "Ġproblem": 1203,
      "ydro": 1204,
      "agn": 1205,
      "ane": 1206,
      "rent": 1207,
      "com": 1208,
      "ject": 1209,
      "Ġimport": 1210,
      "ĉĉ": 1211,
      "Ġoper": 1212,
      "olution": 1213,
      "Ġaut": 1214,
      "ectively": 1215,
      "ĠHowever": 1216,
      "ho": 1217,
      "ental": 1218,
      "Ġsing": 1219,
      "ey": 1220,
      "mu": 1221,
      "ross": 1222,
      "action": 1223,
      "epend": 1224,
      "ĠEx": 1225,
      "vious": 1226,
      "Ġstudies": 1227,
      "sc": 1228,
      "ormal": 1229,
      "Ġhad": 1230,
      "Ġmain": 1231,
      "alth": 1232,
      "gorithm": 1233,
      "Ġfl": 1234,
      "omet": 1235,
      "ĠÂ": 1236,
      "..": 1237,
      "err": 1238,
      "Ġposs": 1239,
      "Ġdifferen": 1240,
      "Ġobserved": 1241,
      "ray": 1242,
      "Ġpredic": 1243,
      "Ġgene": 1244,
      "Ġstate": 1245,
      "We": 1246,
      "Ġstructure": 1247,
      "Ġret": 1248,
      "respond": 1249,
      "requ": 1250,
      "ily": 1251,
      "ĠâĪĪ": 1252,
      "Ġser": 1253,
      "Ġbound": 1254,
      "Ġrepresent": 1255,
      "phi": 1256,
      "Ġtreatment": 1257,
      "hat": 1258,
      "Ġrequi": 1259,
      "app": 1260,
      "uman": 1261,
      "Ġhigher": 1262,
      "Ġlarge": 1263,
      "Ġtra": 1264,
      "ward": 1265,
      "Ġobtained": 1266,
      "Ġcould": 1267,
      "tig": 1268,
      "ĠUn": 1269,
      "Ġdescrib": 1270,
      "Ġsimilar": 1271,
      "ported": 1272,
      "ins": 1273,
      "Ġaddition": 1274,
      "osis": 1275,
      "Ġnetwork": 1276,
      "Ġele": 1277,
      "pi": 1278,
      "rix": 1279,
      "Ġrate": 1280,
      "gan": 1281,
      "ugg": 1282,
      "uss": 1283,
      "Ġmechan": 1284,
      "Ġdise": 1285,
      "Ġeffects": 1286,
      "Ġmodels": 1287,
      "orph": 1288,
      "ike": 1289,
      "Ġsecond": 1290,
      "mathbf": 1291,
      "Ġdue": 1292,
      "Ġq": 1293,
      "Ġpres": 1294,
      "Ġtechn": 1295,
      "els": 1296,
      "Ġcorrespond": 1297,
      "Ġassociated": 1298,
      "posed": 1299,
      "Ġmass": 1300,
      "round": 1301,
      "view": 1302,
      "Ġins": 1303,
      "ĠâĢ¢": 1304,
      "ditions": 1305,
      "Ġwhile": 1306,
      "ole": 1307,
      "Ġlong": 1308,
      "alu": 1309,
      "Ġcap": 1310,
      "Ġsurface": 1311,
      "Ġcomplex": 1312,
      "Ġcent": 1313,
      "Ġcompared": 1314,
      "Ġfind": 1315,
      "arget": 1316,
      "atory": 1317,
      "fer": 1318,
      "Ġsize": 1319,
      "Ġcontain": 1320,
      "usion": 1321,
      "utions": 1322,
      "Ġdem": 1323,
      "ES": 1324,
      "Ġdepend": 1325,
      "atis": 1326,
      "sum": 1327,
      "ffici": 1328,
      "Ġbas": 1329,
      "lambda": 1330,
      "ier": 1331,
      "AT": 1332,
      "Ġmax": 1333,
      "Ġimp": 1334,
      "Ġevalu": 1335,
      "Ġtemperature": 1336,
      "ink": 1337,
      "ector": 1338,
      "Ġscal": 1339,
      "Ġgrow": 1340,
      "ower": 1341,
      "Ġrespectively": 1342,
      "lear": 1343,
      "sh": 1344,
      "ick": 1345,
      "Ġfil": 1346,
      "irc": 1347,
      "ilon": 1348,
      "ram": 1349,
      "ĠÎ±": 1350,
      "ification": 1351,
      "Ġocc": 1352,
      "Ġyear": 1353,
      "Ġsugg": 1354,
      "Ġradi": 1355,
      "ified": 1356,
      "havi": 1357,
      "Ġwithin": 1358,
      "Ġsens": 1359,
      "Ġinte": 1360,
      "Ġwould": 1361,
      "Ġconcent": 1362,
      "Ġmicro": 1363,
      "Ġsingle": 1364,
      "ĠSp": 1365,
      "ou": 1366,
      "Ġatt": 1367,
      "Ġself": 1368,
      "Ġabout": 1369,
      "ength": 1370,
      "Ġel": 1371,
      "ĠRe": 1372,
      "xim": 1373,
      "Ġconditions": 1374,
      "ude": 1375,
      "ĠAt": 1376,
      "where": 1377,
      "med": 1378,
      "Ġneed": 1379,
      "iron": 1380,
      "Ġpop": 1381,
      "Ġresult": 1382,
      "Ġpoint": 1383,
      "Ġlo": 1384,
      "Ġalgorithm": 1385,
      "Ġactivity": 1386,
      "leq": 1387,
      "plement": 1388,
      "ĠRes": 1389,
      "Ġsym": 1390,
      "onstr": 1391,
      "atures": 1392,
      "Ġimpro": 1393,
      "for": 1394,
      "Ġgeneral": 1395,
      "iter": 1396,
      "Ġexpl": 1397,
      "###": 1398,
      "Ġdom": 1399,
      "Ġtri": 1400,
      "min": 1401,
      "Ġdistribution": 1402,
      "Ġtr": 1403,
      "ĠThere": 1404,
      "oss": 1405,
      "uce": 1406,
      "mathrm": 1407,
      "ull": 1408,
      "ER": 1409,
      "reg": 1410,
      "Ġpe": 1411,
      "Ġtotal": 1412,
      "Ġlead": 1413,
      "==": 1414,
      "iod": 1415,
      "Ġassum": 1416,
      "Ġchang": 1417,
      "Ġgra": 1418,
      "MI": 1419,
      "Ġcomput": 1420,
      "Ġcomb": 1421,
      "Ġinformation": 1422,
      "Ġdesign": 1423,
      "Ġiniti": 1424,
      "Ġfrequ": 1425,
      "imension": 1426,
      "cop": 1427,
      "Ġproperties": 1428,
      "Ġconsider": 1429,
      "Ġlevels": 1430,
      "ene": 1431,
      "Ġtype": 1432,
      "ived": 1433,
      "ĠHe": 1434,
      "ependent": 1435,
      "Ġapplic": 1436,
      "Ġinves": 1437,
      "Ġprevious": 1438,
      "aw": 1439,
      "Ġspace": 1440,
      "Ġprovid": 1441,
      "hyl": 1442,
      "Ġinvestig": 1443,
      "Ġapproach": 1444,
      "aterial": 1445,
      "onse": 1446,
      "lecular": 1447,
      "Ġparameters": 1448,
      "Ġphase": 1449,
      "ulations": 1450,
      "ubl": 1451,
      "beta": 1452,
      "Ġav": 1453,
      "Ġflu": 1454,
      "Ġpotential": 1455,
      "ĠThese": 1456,
      "sigma": 1457,
      "lo": 1458,
      "times": 1459,
      "Ġoptim": 1460,
      "ision": 1461,
      "Ġaff": 1462,
      "Ġmean": 1463,
      "Ġbehavi": 1464,
      "Ġvol": 1465,
      "orem": 1466,
      "agne": 1467,
      "Ġdecre": 1468,
      "tional": 1469,
      "Ġsolution": 1470,
      "Ġhuman": 1471,
      "ger": 1472,
      "Ġpaper": 1473,
      "Ġcompar": 1474,
      "Ġlower": 1475,
      "andard": 1476,
      "Ġcorrel": 1477,
      "cri": 1478,
      "Ġcurrent": 1479,
      "Ġder": 1480,
      "ission": 1481,
      "ĠFigure": 1482,
      "Ġproduc": 1483,
      "Ġwater": 1484,
      "ĠTo": 1485,
      "Ġthose": 1486,
      "Ġacid": 1487,
      "Ġcancer": 1488,
      "Ġlocal": 1489,
      "ton": 1490,
      "Ġflow": 1491,
      "Ġregion": 1492,
      "Ġhealth": 1493,
      "Ġimportant": 1494,
      "ograph": 1495,
      "abl": 1496,
      "Ġselec": 1497,
      "Ġgre": 1498,
      "Ġindi": 1499,
      "ade": 1500,
      "rid": 1501,
      "Ġshould": 1502,
      "based": 1503,
      "Ġabove": 1504,
      "ld": 1505,
      "Ġsystems": 1506,
      "ication": 1507,
      "Ġed": 1508,
      "Ġtyp": 1509,
      "Ġphys": 1510,
      "oper": 1511,
      "Ġcompon": 1512,
      "ON": 1513,
      "Ġsuper": 1514,
      "ga": 1515,
      "hemical": 1516,
      "isk": 1517,
      "oph": 1518,
      "Ġhy": 1519,
      "Ġanaly": 1520,
      "inu": 1521,
      "Ġtarget": 1522,
      "ĠAd": 1523,
      "Ġpat": 1524,
      "gamma": 1525,
      "Ġsamples": 1526,
      "Ġsl": 1527,
      "Ġpart": 1528,
      "olds": 1529,
      "Ġbel": 1530,
      "imum": 1531,
      "ĠIm": 1532,
      "Ġdisease": 1533,
      "II": 1534,
      "ists": 1535,
      "iver": 1536,
      "Ġperformance": 1537,
      "ĠĠĠĠĠĠĠĠĠĠĠ": 1538,
      "gle": 1539,
      "Ġox": 1540,
      "ndom": 1541,
      "ĠĠĠĠĠ": 1542,
      "Ġbecause": 1543,
      "ayer": 1544,
      "Ġrange": 1545,
      "Ġcoun": 1546,
      "Ġincreased": 1547,
      "och": 1548,
      "onal": 1549,
      "Ġvery": 1550,
      "Ġdynam": 1551,
      "anti": 1552,
      "Ġadd": 1553,
      "Ġinhib": 1554,
      "Ġmethods": 1555,
      "idence": 1556,
      "inical": 1557,
      "erence": 1558,
      "ival": 1559,
      "ule": 1560,
      "Ġfactor": 1561,
      "Ġfin": 1562,
      "ints": 1563,
      "viron": 1564,
      "Ġsour": 1565,
      "verage": 1566,
      "equ": 1567,
      "Ġear": 1568,
      "Ġshowed": 1569,
      "ites": 1570,
      "Ġperformed": 1571,
      "Ġrese": 1572,
      "ĠEn": 1573,
      "Ġspecies": 1574,
      "AC": 1575,
      "ĠCl": 1576,
      "hip": 1577,
      "tilde": 1578,
      "io": 1579,
      "ately": 1580,
      "Th": 1581,
      "ody": 1582,
      "Ġincrease": 1583,
      "ĠPh": 1584,
      "âĢĿ": 1585,
      "Ġshows": 1586,
      "ĠAc": 1587,
      "Ġpost": 1588,
      "ording": 1589,
      "ences": 1590,
      "oy": 1591,
      "ner": 1592,
      "Ġresponse": 1593,
      "Ġoccur": 1594,
      "rho": 1595,
      "Ġperiod": 1596,
      "ars": 1597,
      "Ġred": 1598,
      "ĠOn": 1599,
      "Ġdensity": 1600,
      "Ġexample": 1601,
      "get": 1602,
      "Ġreal": 1603,
      "ĠCount": 1604,
      "acy": 1605,
      "Ġpower": 1606,
      "Ġabs": 1607,
      "ital": 1608,
      "Ġprim": 1609,
      "âĢĲ": 1610,
      "Ġdefined": 1611,
      "Ġnormal": 1612,
      "aj": 1613,
      "Ġinst": 1614,
      "Ġallow": 1615,
      "Ġpossible": 1616,
      "Ġvis": 1617,
      "Ġreported": 1618,
      "Ġsignal": 1619,
      "theta": 1620,
      "Ġden": 1621,
      "ables": 1622,
      "Ġdeg": 1623,
      "Ġindivid": 1624,
      "agnetic": 1625,
      "Ġgroups": 1626,
      "ae": 1627,
      "arrow": 1628,
      "Ġstat": 1629,
      "Ġmechanism": 1630,
      "osp": 1631,
      "mer": 1632,
      "other": 1633,
      "Ġprot": 1634,
      "Ġcases": 1635,
      "Ġcr": 1636,
      "Ġte": 1637,
      "Ġintegr": 1638,
      "ets": 1639,
      "Ġdevelopment": 1640,
      "Ġrandom": 1641,
      "Ġinvol": 1642,
      "Ġincluding": 1643,
      "Ġerr": 1644,
      "gram": 1645,
      "Ġparticular": 1646,
      "eps": 1647,
      "Ġstandard": 1648,
      "position": 1649,
      "Ġcontrib": 1650,
      "sequ": 1651,
      "Ġmany": 1652,
      "Ġfurther": 1653,
      "Ġsignificantly": 1654,
      "ators": 1655,
      "urb": 1656,
      "Ġagain": 1657,
      "bar": 1658,
      "Ġwithout": 1659,
      "Ġsever": 1660,
      "Ġtop": 1661,
      "ret": 1662,
      "led": 1663,
      "Ġmatrix": 1664,
      "Ġspecific": 1665,
      "ateg": 1666,
      "ĨĴ": 1667,
      "Ġdirect": 1668,
      "Ġsample": 1669,
      "Ġthem": 1670,
      "SA": 1671,
      "oint": 1672,
      "Ġrole": 1673,
      "Ġchanges": 1674,
      "raction": 1675,
      "Ġsum": 1676,
      "Ġindividual": 1677,
      "IN": 1678,
      "Ġimmun": 1679,
      "ced": 1680,
      "oh": 1681,
      "Ġstrong": 1682,
      "Ġep": 1683,
      "Ġlinear": 1684,
      "ually": 1685,
      "delta": 1686,
      "way": 1687,
      "asing": 1688,
      "Ġtim": 1689,
      "Ġvi": 1690,
      "ison": 1691,
      "Ġfunctions": 1692,
      "Ġamong": 1693,
      "Ġsee": 1694,
      "erest": 1695,
      "Ġgrowth": 1696,
      "Ġrati": 1697,
      "ĠSc": 1698,
      "ixed": 1699,
      "RNA": 1700,
      "eed": 1701,
      "tau": 1702,
      "Ġent": 1703,
      "Ġdr": 1704,
      "ores": 1705,
      "Ġapproxim": 1706,
      "ful": 1707,
      "Ġrele": 1708,
      "Ġfactors": 1709,
      "Ġdiscuss": 1710,
      "Ġphot": 1711,
      "Ġproposed": 1712,
      "ero": 1713,
      "omega": 1714,
      "Ġfour": 1715,
      "astic": 1716,
      "Ġyears": 1717,
      "hesis": 1718,
      "ique": 1719,
      "Ġmaterial": 1720,
      "Ġbre": 1721,
      "Ġprof": 1722,
      "ĠAp": 1723,
      "Ġneg": 1724,
      "Ġbu": 1725,
      "Ġassess": 1726,
      "ĠâĢľ": 1727,
      "Ġvir": 1728,
      "atter": 1729,
      "Ġdescribed": 1730,
      "istics": 1731,
      "Ġcompos": 1732,
      "az": 1733,
      "struc": 1734,
      "Ġtum": 1735,
      "partial": 1736,
      "af": 1737,
      "Ġwho": 1738,
      "atal": 1739,
      "Ġdemonstr": 1740,
      "ances": 1741,
      "yt": 1742,
      "Ġremain": 1743,
      "Ġless": 1744,
      "Ġpositive": 1745,
      "omic": 1746,
      "Ġsince": 1747,
      "ogn": 1748,
      "Ġcondition": 1749,
      "::": 1750,
      "Ġdoes": 1751,
      "tice": 1752,
      "osph": 1753,
      "Ġprov": 1754,
      "ĠCO": 1755,
      "Ġrat": 1756,
      "Ġterms": 1757,
      "box": 1758,
      "Ġtak": 1759,
      "Ġpattern": 1760,
      "ale": 1761,
      "Ġnan": 1762,
      "ules": 1763,
      "Ġmut": 1764,
      "ished": 1765,
      "Ġrelated": 1766,
      "Ġtheory": 1767,
      "bol": 1768,
      "cdot": 1769,
      "vironment": 1770,
      "air": 1771,
      "ivers": 1772,
      "ĠAr": 1773,
      "Ġï£": 1774,
      "ressed": 1775,
      "Ġâī¤": 1776,
      "ĠMet": 1777,
      "ID": 1778,
      "ults": 1779,
      "ĠÎ²": 1780,
      "Ġdat": 1781,
      "pose": 1782,
      "Ġorig": 1783,
      "Ġreturn": 1784,
      "Ġchange": 1785,
      "Ġlarg": 1786,
      "au": 1787,
      "aces": 1788,
      "Ġarea": 1789,
      "Ġgenes": 1790,
      "AS": 1791,
      "Ġhydro": 1792,
      "Ġconsist": 1793,
      "man": 1794,
      "Ġresearch": 1795,
      "ĠDe": 1796,
      "Ġorgan": 1797,
      "ask": 1798,
      "Ġback": 1799,
      "Ġfollows": 1800,
      "ung": 1801,
      "roll": 1802,
      "Ġequation": 1803,
      "plied": 1804,
      "tr": 1805,
      "Ġcorresponding": 1806,
      "odes": 1807,
      "ested": 1808,
      "Ġrelations": 1809,
      "nal": 1810,
      "Ġfr": 1811,
      "Ġlimit": 1812,
      "mit": 1813,
      "Ġoff": 1814,
      "uted": 1815,
      "Ġrisk": 1816,
      "read": 1817,
      "Ġknown": 1818,
      "plit": 1819,
      "tivity": 1820,
      "Ġsequence": 1821,
      "Ġconsidered": 1822,
      "xi": 1823,
      "ĠMod": 1824,
      "vity": 1825,
      "Ġnuc": 1826,
      "cle": 1827,
      "ices": 1828,
      "Ġlength": 1829,
      "Ġseveral": 1830,
      "sing": 1831,
      "oot": 1832,
      "not": 1833,
      "Ġstress": 1834,
      "ĠIf": 1835,
      "CT": 1836,
      "roph": 1837,
      "Ġcommun": 1838,
      "Ġclust": 1839,
      "ĠLe": 1840,
      "me": 1841,
      "antum": 1842,
      "Ġmemb": 1843,
      "Ġlab": 1844,
      "Ġeven": 1845,
      "Ġinflu": 1846,
      "ck": 1847,
      "ĠÃĹ": 1848,
      "Ġlog": 1849,
      "ving": 1850,
      "ests": 1851,
      "Ġhis": 1852,
      "ank": 1853,
      "ĠInd": 1854,
      "actions": 1855,
      "fty": 1856,
      "mod": 1857,
      "Ġreview": 1858,
      "though": 1859,
      "Ġeffici": 1860,
      "Ġmap": 1861,
      "infty": 1862,
      "Ġbeing": 1863,
      "land": 1864,
      "Ġclinical": 1865,
      "Ġmeasured": 1866,
      "ering": 1867,
      "ĠTable": 1868,
      "Ġshe": 1869,
      "see": 1870,
      "Ġsection": 1871,
      "Ġavail": 1872,
      "omen": 1873,
      "Ġvers": 1874,
      "Ġdel": 1875,
      "ither": 1876,
      "eration": 1877,
      "Ġhand": 1878,
      "Ġcontinu": 1879,
      "Ġconn": 1880,
      "hors": 1881,
      "rad": 1882,
      "Ġfam": 1883,
      "Ġlear": 1884,
      "Ġinitial": 1885,
      "ystem": 1886,
      "Ġge": 1887,
      "ĠâĢ²": 1888,
      "Ġcirc": 1889,
      "Ġpubl": 1890,
      "ĠIs": 1891,
      "Ġvia": 1892,
      "Ġcommon": 1893,
      "ife": 1894,
      "Ġmark": 1895,
      "Ġever": 1896,
      "arc": 1897,
      "big": 1898,
      "ertain": 1899,
      "\\\\": 1900,
      "var": 1901,
      "As": 1902,
      "roscop": 1903,
      "Ġage": 1904,
      "Ġhow": 1905,
      "ĠLet": 1906,
      "struct": 1907,
      "Ġaverage": 1908,
      "vant": 1909,
      "ĠSh": 1910,
      "imensional": 1911,
      "SC": 1912,
      "ape": 1913,
      "nu": 1914,
      "Ġloss": 1915,
      "ason": 1916,
      "ides": 1917,
      "Ġpopulation": 1918,
      "Ġdomain": 1919,
      "inding": 1920,
      "we": 1921,
      "AL": 1922,
      "Ġaccur": 1923,
      "ety": 1924,
      "Ġcaus": 1925,
      "Delta": 1926,
      "rapy": 1927,
      "Ġprom": 1928,
      "time": 1929,
      "Ġintro": 1930,
      "Ġmultiple": 1931,
      "Ġconstant": 1932,
      "pling": 1933,
      "ino": 1934,
      "ajor": 1935,
      "ior": 1936,
      "abol": 1937,
      "def": 1938,
      "Ġpoints": 1939,
      "verse": 1940,
      "name": 1941,
      "ĠSe": 1942,
      "itor": 1943,
      "Pro": 1944,
      "arm": 1945,
      "Ġtiss": 1946,
      "Ġfib": 1947,
      "Ġgraph": 1948,
      "Ġcall": 1949,
      "atisf": 1950,
      "Ġconduc": 1951,
      "dex": 1952,
      "ĠNe": 1953,
      "Ġpers": 1954,
      "ern": 1955,
      "CR": 1956,
      "angle": 1957,
      "Ġfrequency": 1958,
      "AP": 1959,
      "Ġpresented": 1960,
      "amp": 1961,
      "Ġbefore": 1962,
      "ords": 1963,
      "Ġinput": 1964,
      "ĠâĨĴ": 1965,
      "Ġparticip": 1966,
      "OR": 1967,
      "Ġchild": 1968,
      "Ġcre": 1969,
      "fficient": 1970,
      "Ġsepar": 1971,
      "uration": 1972,
      "Î±": 1973,
      "Ġexist": 1974,
      "ised": 1975,
      "Ġlight": 1976,
      "imal": 1977,
      "****": 1978,
      "ĠDNA": 1979,
      "hel": 1980,
      "Ġinterest": 1981,
      "bf": 1982,
      "ke": 1983,
      "Ġcollec": 1984,
      "Ġtrain": 1985,
      "ai": 1986,
      "ĠPl": 1987,
      "ĠÎ»": 1988,
      "ĠCo": 1989,
      "Ġimage": 1990,
      "Ġhyp": 1991,
      "oma": 1992,
      "Ġweight": 1993,
      "Ġcross": 1994,
      "rt": 1995,
      "Ġdifference": 1996,
      "Ġfeatures": 1997,
      "medi": 1998,
      "type": 1999,
      "Ġpress": 2000,
      "IC": 2001,
      "Ġtherm": 2002,
      "Ġstates": 2003,
      "ustr": 2004,
      "till": 2005,
      "Ġhist": 2006,
      "Ġratio": 2007,
      "aging": 2008,
      "ĠAll": 2009,
      "Ġhel": 2010,
      "bon": 2011,
      "Ġbehavior": 2012,
      "Ġpri": 2013,
      "Ġsynt": 2014,
      "ended": 2015,
      "ĠInt": 2016,
      "tt": 2017,
      "Ġvarious": 2018,
      "rect": 2019,
      "Ġprec": 2020,
      "Ġtimes": 2021,
      "MS": 2022,
      "Ġanalyz": 2023,
      "Ġcare": 2024,
      "mat": 2025,
      "Ġalong": 2026,
      "Ġpur": 2027,
      "atively": 2028,
      "Ġstar": 2029,
      "jects": 2030,
      "ii": 2031,
      "istance": 2032,
      "ĠThen": 2033,
      "AN": 2034,
      "Ġparameter": 2035,
      "ulate": 2036,
      "Ġevery": 2037,
      "Ġsatisf": 2038,
      "Ġdetermined": 2039,
      "ina": 2040,
      "rane": 2041,
      "Ġpair": 2042,
      "ool": 2043,
      "Table": 2044,
      "Ġthus": 2045,
      "ogene": 2046,
      "ĠÏĨ": 2047,
      "Ġprogram": 2048,
      "asc": 2049,
      "Ġenvironment": 2050,
      "MP": 2051,
      "Ġread": 2052,
      "Ġach": 2053,
      "Ġpresence": 2054,
      "Ġmice": 2055,
      "For": 2056,
      "Ġproduction": 2057,
      "Ġdifferences": 2058,
      "Ġprovide": 2059,
      "ste": 2060,
      "ames": 2061,
      "ĉĠ": 2062,
      "ĠÂ±": 2063,
      "roup": 2064,
      "Ġelectron": 2065,
      "Ġhyper": 2066,
      "bit": 2067,
      "ĠRec": 2068,
      "Ġvector": 2069,
      "uble": 2070,
      "rangle": 2071,
      "Ġwr": 2072,
      "wide": 2073,
      "ĠâĬ": 2074,
      "rack": 2075,
      "ryst": 2076,
      "Ġinj": 2077,
      "ega": 2078,
      "Ġwhe": 2079,
      "psilon": 2080,
      "Ġagainst": 2081,
      "Ġdiagn": 2082,
      "Ġhom": 2083,
      "Ġachie": 2084,
      "ns": 2085,
      "Ġrece": 2086,
      "--------": 2087,
      "Ġavailable": 2088,
      "inf": 2089,
      "Ġsuc": 2090,
      "Ġgu": 2091,
      "Ġmajor": 2092,
      "ĠThus": 2093,
      "ware": 2094,
      "Ġsupport": 2095,
      "lor": 2096,
      "Ġexperimental": 2097,
      "ĠMo": 2098,
      "Ġconcentration": 2099,
      "tics": 2100,
      "Ġnec": 2101,
      "Ġphen": 2102,
      "sq": 2103,
      "Ġclos": 2104,
      "sub": 2105,
      "Ġknow": 2106,
      "Ġformation": 2107,
      "Ġdid": 2108,
      "ouse": 2109,
      "inary": 2110,
      "ict": 2111,
      "ĠCD": 2112,
      "This": 2113,
      "less": 2114,
      "Ġnear": 2115,
      "Ġimprove": 2116,
      "abil": 2117,
      "Ġreve": 2118,
      "Ġexperiments": 2119,
      "ience": 2120,
      "ula": 2121,
      "ored": 2122,
      "Ġunc": 2123,
      "__": 2124,
      "Ġapplied": 2125,
      "Ġreduced": 2126,
      "Ġdetail": 2127,
      "stand": 2128,
      "Ġcho": 2129,
      "omy": 2130,
      "Ġcalculated": 2131,
      "Ġenh": 2132,
      "LES": 2133,
      "itro": 2134,
      "Ġrespons": 2135,
      "Ġest": 2136,
      "Ġmi": 2137,
      "Ġcoe": 2138,
      "ĠTherefore": 2139,
      "ĠMore": 2140,
      "bl": 2141,
      "anced": 2142,
      "ume": 2143,
      "Ġband": 2144,
      "Ġact": 2145,
      "Ġeither": 2146,
      "omes": 2147,
      "ĠGen": 2148,
      "vare": 2149,
      "ET": 2150,
      "reen": 2151,
      "ĠPar": 2152,
      "ĠSim": 2153,
      "Ġidentified": 2154,
      "Ġinteraction": 2155,
      "Ġmade": 2156,
      "Ġsource": 2157,
      "tis": 2158,
      "ots": 2159,
      "mega": 2160,
      "Ġserv": 2161,
      "ms": 2162,
      "alysis": 2163,
      "vent": 2164,
      "ense": 2165,
      "gl": 2166,
      "Ġlines": 2167,
      "Ġappear": 2168,
      "tif": 2169,
      "Ġfree": 2170,
      "oms": 2171,
      "ining": 2172,
      "eren": 2173,
      "Ġchann": 2174,
      "varepsilon": 2175,
      "sim": 2176,
      "Ġcou": 2177,
      "Â°": 2178,
      "Ġerror": 2179,
      "Ġquanti": 2180,
      "ĠEq": 2181,
      "by": 2182,
      "ĠII": 2183,
      "tex": 2184,
      "ĠSch": 2185,
      "sqrt": 2186,
      "ocus": 2187,
      "Ġdev": 2188,
      "quad": 2189,
      "ters": 2190,
      "Ġrelationship": 2191,
      "oll": 2192,
      "Ġgo": 2193,
      "Ġwave": 2194,
      "Ġleft": 2195,
      "ways": 2196,
      "hi": 2197,
      "Ġright": 2198,
      "obal": 2199,
      "Ġdown": 2200,
      "uk": 2201,
      "Ġcoll": 2202,
      "Ġmagnetic": 2203,
      "Ġprog": 2204,
      "dots": 2205,
      "Ġstrateg": 2206,
      "bs": 2207,
      "unction": 2208,
      "Ġenc": 2209,
      "Ġclear": 2210,
      "Ġcost": 2211,
      "geb": 2212,
      "etter": 2213,
      "MILES": 2214,
      "lamm": 2215,
      "Ġmust": 2216,
      "Ġeffective": 2217,
      "Ġexc": 2218,
      "Ġplas": 2219,
      "Ġsuggest": 2220,
      "itions": 2221,
      "Ġleast": 2222,
      "ying": 2223,
      "lying": 2224,
      "Ġlik": 2225,
      "Omega": 2226,
      "aking": 2227,
      "Ġmaximum": 2228,
      "Ġrelative": 2229,
      "Ã©": 2230,
      "Ġaccording": 2231,
      "ient": 2232,
      "Ġway": 2233,
      "Ġsem": 2234,
      "atural": 2235,
      "like": 2236,
      "resh": 2237,
      "ĠMe": 2238,
      "Ps": 2239,
      "ĠTrans": 2240,
      "isc": 2241,
      "Ġprac": 2242,
      "Ġrun": 2243,
      "Ġconver": 2244,
      "Ġsk": 2245,
      "Ġyield": 2246,
      "geq": 2247,
      "ably": 2248,
      "Ġantib": 2249,
      "izing": 2250,
      "Î²": 2251,
      "mission": 2252,
      "Ġnow": 2253,
      "Ġdetection": 2254,
      "eloc": 2255,
      "Ġget": 2256,
      "ert": 2257,
      "Ġvariables": 2258,
      "Ġopen": 2259,
      "Ġpressure": 2260,
      "Ġstrain": 2261,
      "ument": 2262,
      "ĠFurther": 2263,
      "Ġquantum": 2264,
      "Ġimplement": 2265,
      "Ġearly": 2266,
      "Ġframe": 2267,
      "Ġshort": 2268,
      "Ġdrug": 2269,
      "Ġrequired": 2270,
      "PS": 2271,
      "Ġmy": 2272,
      "Ġmuch": 2273,
      "Ġmem": 2274,
      "CC": 2275,
      "Ġquality": 2276,
      "Ġproteins": 2277,
      "Ġlayer": 2278,
      "Ġques": 2279,
      "Ġrecept": 2280,
      "Ġhere": 2281,
      "Ġproced": 2282,
      "ured": 2283,
      "Ġdeveloped": 2284,
      "Ġposition": 2285,
      "rum": 2286,
      "Ġlat": 2287,
      "Ġincreasing": 2288,
      "EM": 2289,
      "Ġmeasurements": 2290,
      "Ġben": 2291,
      "Ġisol": 2292,
      "wh": 2293,
      "To": 2294,
      "Ġvalid": 2295,
      "Ġfunctional": 2296,
      "emma": 2297,
      "...": 2298,
      "orld": 2299,
      "ries": 2300,
      "Ġprobability": 2301,
      "ĠNew": 2302,
      "Ġmm": 2303,
      "OS": 2304,
      "AD": 2305,
      "ĠÎ´": 2306,
      "Ġscale": 2307,
      "ĠFe": 2308,
      "ĠTheorem": 2309,
      "ĠQu": 2310,
      "Ġcomponents": 2311,
      "Ġblood": 2312,
      "ĠÏĥ": 2313,
      "acc": 2314,
      "Ġbetter": 2315,
      "Ġstep": 2316,
      "ĠÎ³": 2317,
      "Ġfac": 2318,
      "aneous": 2319,
      "Ġload": 2320,
      "Ġmetabol": 2321,
      "Ġevolution": 2322,
      "son": 2323,
      "ream": 2324,
      "Ġeas": 2325,
      "ird": 2326,
      "dimensional": 2327,
      "bor": 2328,
      "Ġmus": 2329,
      "Ġequations": 2330,
      "psi": 2331,
      "order": 2332,
      "olar": 2333,
      "Ġnumer": 2334,
      "Ġkey": 2335,
      "orth": 2336,
      "Ġsimple": 2337,
      "ift": 2338,
      "cale": 2339,
      "Ġindex": 2340,
      "ĠâĢĵ": 2341,
      "Ġconcentr": 2342,
      "ges": 2343,
      "Ġnegative": 2344,
      "Ġveloc": 2345,
      "Ġax": 2346,
      "ĠEff": 2347,
      "Ġfinite": 2348,
      "Ġill": 2349,
      "ching": 2350,
      "Ġpatient": 2351,
      "epsilon": 2352,
      "Ġmen": 2353,
      "Ġcri": 2354,
      "IS": 2355,
      "Cl": 2356,
      "Ġconcl": 2357,
      "ĠÎ¸": 2358,
      "ibility": 2359,
      "Ġsymmet": 2360,
      "enter": 2361,
      "Ġdistance": 2362,
      "Ġpolym": 2363,
      "ights": 2364,
      "Ġcult": 2365,
      "Ġpeak": 2366,
      "Ġacross": 2367,
      "inition": 2368,
      "Ġlet": 2369,
      "Ġconstruc": 2370,
      "Ġincluded": 2371,
      "Ġhowever": 2372,
      "Ġregions": 2373,
      "Ġlearning": 2374,
      "Ġevidence": 2375,
      "inally": 2376,
      "Ġneut": 2377,
      "itation": 2378,
      "Ġwhether": 2379,
      "Ġoutput": 2380,
      "ĠSection": 2381,
      "Ġgood": 2382,
      "IT": 2383,
      "uation": 2384,
      "Ġtypes": 2385,
      "bm": 2386,
      "cos": 2387,
      "with": 2388,
      "lim": 2389,
      "otic": 2390,
      "Ġstill": 2391,
      "Ġdays": 2392,
      "Ġstudied": 2393,
      "Ġimages": 2394,
      "ble": 2395,
      "Ġarg": 2396,
      "linear": 2397,
      "Ġprocesses": 2398,
      "Ġwid": 2399,
      "Ġtraining": 2400,
      "Ġindependent": 2401,
      "plac": 2402,
      "Ġresid": 2403,
      "Ġsuccess": 2404,
      "Ġnucle": 2405,
      "GF": 2406,
      "let": 2407,
      "ploy": 2408,
      "Ġtumor": 2409,
      "Gamma": 2410,
      "Ġtherefore": 2411,
      "rast": 2412,
      "Ġfocus": 2413,
      "ash": 2414,
      "Ġbelow": 2415,
      "ially": 2416,
      "Ġcomparison": 2417,
      "Ġadj": 2418,
      "Ġlike": 2419,
      "Ġmolecular": 2420,
      "ried": 2421,
      "Ġfit": 2422,
      "ĠDi": 2423,
      "log": 2424,
      "Ġplay": 2425,
      "work": 2426,
      "ections": 2427,
      "Ġelectro": 2428,
      "uit": 2429,
      "more": 2430,
      "Ġmight": 2431,
      "Ġanalys": 2432,
      "Ġmeans": 2433,
      "Ġcorrelation": 2434,
      "kn": 2435,
      "Ġcontroll": 2436,
      "IV": 2437,
      "Ch": 2438,
      "pec": 2439,
      "rag": 2440,
      "Ġmagn": 2441,
      "Ġphysical": 2442,
      "ION": 2443,
      "Ġreveal": 2444,
      "Ġphosph": 2445,
      "Ġrates": 2446,
      "Ġlarger": 2447,
      "Ġstim": 2448,
      "Ġsoft": 2449,
      "Ġcompound": 2450,
      "be": 2451,
      "chi": 2452,
      "ĠNo": 2453,
      "Ġimpact": 2454,
      "tor": 2455,
      "Ġprimary": 2456,
      "ocial": 2457,
      "Ġapplication": 2458,
      "Ġsolutions": 2459,
      "duce": 2460,
      "Ġcharacteristics": 2461,
      "Ġelements": 2462,
      "Ġview": 2463,
      "Ġlater": 2464,
      "uture": 2465,
      "Ġfamily": 2466,
      "rial": 2467,
      "Ġtranscri": 2468,
      "orption": 2469,
      "Ġsw": 2470,
      "CD": 2471,
      "ED": 2472,
      "Ġemb": 2473,
      "Ġzero": 2474,
      "ols": 2475,
      "Ġlife": 2476,
      "cep": 2477,
      "ĠLi": 2478,
      "ths": 2479,
      "Ġseries": 2480,
      "Ġaround": 2481,
      "Ġtransition": 2482,
      "ĠCor": 2483,
      "ĠâĪĤ": 2484,
      "Ġdatas": 2485,
      "Ġher": 2486,
      "ĠBy": 2487,
      "AM": 2488,
      "spec": 2489,
      "oles": 2490,
      "ography": 2491,
      "tle": 2492,
      "ĠCar": 2493,
      "alle": 2494,
      "Ġestabl": 2495,
      "agement": 2496,
      "Ġschem": 2497,
      "ground": 2498,
      "Ġfail": 2499,
      "Ġexpected": 2500,
      "Ġrequire": 2501,
      "array": 2502,
      "Ġexperiment": 2503,
      "Ġelement": 2504,
      "Ġneu": 2505,
      "Ġgenerated": 2506,
      "Ġsite": 2507,
      "ĠCont": 2508,
      "ĠRNA": 2509,
      "eral": 2510,
      "Ġcontent": 2511,
      "Ġbacter": 2512,
      "ler": 2513,
      "Ġtransfer": 2514,
      "ulf": 2515,
      "rightarrow": 2516,
      "any": 2517,
      "ĠSince": 2518,
      "induced": 2519,
      "Ġreaction": 2520,
      "heck": 2521,
      "Ġstructures": 2522,
      "Ġcount": 2523,
      "Ġdetermine": 2524,
      "zym": 2525,
      "ĠBl": 2526,
      "Ġunderstand": 2527,
      "ocal": 2528,
      "Ġsyn": 2529,
      "Ġpoly": 2530,
      "ury": 2531,
      "Ġbest": 2532,
      "Ġfixed": 2533,
      "reng": 2534,
      "Ġchemical": 2535,
      "Ġtissue": 2536,
      "Ġpul": 2537,
      "Ġboundary": 2538,
      "ising": 2539,
      "Ġbro": 2540,
      "atistical": 2541,
      "icity": 2542,
      "sk": 2543,
      "ring": 2544,
      "Ġlast": 2545,
      "Ġchildren": 2546,
      "rim": 2547,
      "Ġreduction": 2548,
      "Ġspin": 2549,
      "Ġbody": 2550,
      "operator": 2551,
      "vari": 2552,
      "Ġdiv": 2553,
      "ymbol": 2554,
      "Ġmal": 2555,
      "Ġspati": 2556,
      "ah": 2557,
      "ĠBi": 2558,
      "back": 2559,
      "sy": 2560,
      "Ġseen": 2561,
      "ĠWith": 2562,
      "ids": 2563,
      "plications": 2564,
      "Ġnecess": 2565,
      "Ġside": 2566,
      "Ġbrain": 2567,
      "Ġfew": 2568,
      "Ġapplications": 2569,
      "utes": 2570,
      "aches": 2571,
      "Ġactive": 2572,
      "varphi": 2573,
      "term": 2574,
      "Ġmom": 2575,
      "iversity": 2576,
      "Ġfinal": 2577,
      "ledge": 2578,
      "Ġdynamics": 2579,
      "aving": 2580,
      "erc": 2581,
      "orphism": 2582,
      "ones": 2583,
      "off": 2584,
      "pm": 2585,
      "Ġaction": 2586,
      "Ġnatural": 2587,
      "ĠGe": 2588,
      "Ġyou": 2589,
      "lex": 2590,
      "ĠĠĠĠĠĠ": 2591,
      "stit": 2592,
      "Ġgas": 2593,
      "Ġmake": 2594,
      "Ġinduced": 2595,
      "ĠAfter": 2596,
      "ĠWh": 2597,
      "Ġcomponent": 2598,
      "Ġinfection": 2599,
      "ĠĠĠĠĠĠĠĠĠĠĠĠĠĠĠ": 2600,
      "Ġconfir": 2601,
      "igen": 2602,
      "ĠSystem": 2603,
      "ticle": 2604,
      "Ġprovided": 2605,
      "ternal": 2606,
      "bers": 2607,
      "OD": 2608,
      "ĠInter": 2609,
      "ott": 2610,
      "aves": 2611,
      "ĠStud": 2612,
      "py": 2613,
      "Ġresistance": 2614,
      "ĠSur": 2615,
      "atch": 2616,
      "Ġdim": 2617,
      "Ġinterp": 2618,
      "Ġcycl": 2619,
      "ont": 2620,
      "iting": 2621,
      "AG": 2622,
      "Ġequival": 2623,
      "otype": 2624,
      "Ġpreviously": 2625,
      "Ġadditional": 2626,
      "outh": 2627,
      "Ġimpl": 2628,
      "Ġion": 2629,
      "Ġir": 2630,
      "Ġcop": 2631,
      "Ġhal": 2632,
      "Ġactivation": 2633,
      "langle": 2634,
      "Ġfull": 2635,
      "SS": 2636,
      "ĠOp": 2637,
      "idd": 2638,
      "Ġproof": 2639,
      "Ġproblems": 2640,
      "Ġtransform": 2641,
      "Ġinteractions": 2642,
      "Ġsupp": 2643,
      "des": 2644,
      "ĠReg": 2645,
      "operatorname": 2646,
      "egin": 2647,
      "Ġcryst": 2648,
      "Ġincreases": 2649,
      "ronic": 2650,
      "Ġadap": 2651,
      "inant": 2652,
      "Ġvelocity": 2653,
      "ĠAss": 2654,
      "iques": 2655,
      "Ġcontinuous": 2656,
      "ĠComp": 2657,
      "ĠProper": 2658,
      "Ġprior": 2659,
      "orb": 2660,
      "Ġnovel": 2661,
      "Ġblock": 2662,
      "Ġvolume": 2663,
      "Ġregard": 2664,
      "ometry": 2665,
      "EC": 2666,
      "Ġresulting": 2667,
      "ĠOr": 2668,
      "Ġcarbon": 2669,
      "arent": 2670,
      "Ġbinding": 2671,
      "ij": 2672,
      "Ġaccess": 2673,
      "Ġweak": 2674,
      "Ġunit": 2675,
      "Ġide": 2676,
      "\"\"": 2677,
      "Ġcm": 2678,
      "Ġcritical": 2679,
      "Ġrespect": 2680,
      "trans": 2681,
      "Ġâī¥": 2682,
      "Ġsal": 2683,
      "ead": 2684,
      "Ġsimulation": 2685,
      "Ġcapac": 2686,
      "itivity": 2687,
      "Ġrecord": 2688,
      "rak": 2689,
      "Ġneur": 2690,
      "onic": 2691,
      "ople": 2692,
      "Ġmg": 2693,
      "Ġstreng": 2694,
      "erve": 2695,
      "Ġreduc": 2696,
      "Ġpass": 2697,
      "ordin": 2698,
      "exp": 2699,
      "jective": 2700,
      "ensor": 2701,
      "Ġparticles": 2702,
      "Ġair": 2703,
      "Ġlink": 2704,
      "ĠÏĦ": 2705,
      "Ġlist": 2706,
      "cin": 2707,
      "ĠOur": 2708,
      "pri": 2709,
      "vere": 2710,
      "ibr": 2711,
      "iform": 2712,
      "Ġexplain": 2713,
      "Ġfem": 2714,
      "Ġutil": 2715,
      "St": 2716,
      "overline": 2717,
      "Ġoften": 2718,
      "ery": 2719,
      "ope": 2720,
      "ĠUsing": 2721,
      "begin": 2722,
      "Ġdifferenti": 2723,
      "pers": 2724,
      "self": 2725,
      "izes": 2726,
      "Ġconcentrations": 2727,
      "IR": 2728,
      "ĠSup": 2729,
      "Ġbasis": 2730,
      "Ġinclude": 2731,
      "ĠBond": 2732,
      "Ġextrac": 2733,
      "ĠMethod": 2734,
      "ĠData": 2735,
      "ĠDef": 2736,
      "wn": 2737,
      "Ġnetworks": 2738,
      "igned": 2739,
      "âĢ¢": 2740,
      "Ġexpressed": 2741,
      "Ġcontrast": 2742,
      "esis": 2743,
      "col": 2744,
      "inter": 2745,
      "pid": 2746,
      "Ġdri": 2747,
      "Ġdefine": 2748,
      "Ġinfluence": 2749,
      "Ġselected": 2750,
      "EL": 2751,
      "Ġcontaining": 2752,
      "Ġsil": 2753,
      "gebra": 2754,
      "reat": 2755,
      "bolds": 2756,
      "Ġinvestigated": 2757,
      "ĠCol": 2758,
      "ymmet": 2759,
      "ytes": 2760,
      "Ġmolec": 2761,
      "Ġinvolved": 2762,
      "Ġday": 2763,
      "Ġchain": 2764,
      "ĠMoreover": 2765,
      "Ġdiag": 2766,
      "Ġang": 2767,
      "Ġlikely": 2768,
      "Ġspectrum": 2769,
      "Ġderiv": 2770,
      "boldsymbol": 2771,
      "Ġhelp": 2772,
      "ĠAm": 2773,
      "Ġtreated": 2774,
      "Ġvariable": 2775,
      "ellular": 2776,
      "ĠDes": 2777,
      "aps": 2778,
      "Ġnm": 2779,
      "ĠÏģ": 2780,
      "ĠWhen": 2781,
      "Ġhighly": 2782,
      "amin": 2783,
      "Ġwhat": 2784,
      "related": 2785,
      "Ġchrom": 2786,
      "Ġsurv": 2787,
      "ĠAnalysis": 2788,
      "Ġsit": 2789,
      "fact": 2790,
      "oding": 2791,
      "Ġproduct": 2792,
      "Ġevents": 2793,
      "ras": 2794,
      "ĠPer": 2795,
      "max": 2796,
      "ĠAg": 2797,
      "cont": 2798,
      "icro": 2799,
      "Ġadv": 2800,
      "Ġcalled": 2801,
      "Ġdegree": 2802,
      "AB": 2803,
      "TR": 2804,
      "Ġseg": 2805,
      "ĠCan": 2806,
      "Ġdemonstrated": 2807,
      "wise": 2808,
      "Ġve": 2809,
      "ĠCa": 2810,
      "Ġdetected": 2811,
      "co": 2812,
      "Ġderived": 2813,
      "Ġexhib": 2814,
      "Ġglobal": 2815,
      "alax": 2816,
      "ulating": 2817,
      "Al": 2818,
      "angu": 2819,
      "bo": 2820,
      "Ġrecom": 2821,
      "Ġfeature": 2822,
      "dependent": 2823,
      "Ġrot": 2824,
      "vention": 2825,
      "Ġremov": 2826,
      "Ġwind": 2827,
      "Ġaccuracy": 2828,
      "size": 2829,
      "Ġsumm": 2830,
      "Ġmeasurement": 2831,
      "Ġfields": 2832,
      "wards": 2833,
      "Ġliter": 2834,
      "ataly": 2835,
      "ĠStr": 2836,
      "Ġreport": 2837,
      "Ġcentral": 2838,
      "Ġsqu": 2839,
      "Ġtherapy": 2840,
      "hest": 2841,
      "Ġfeed": 2842,
      "SMILES": 2843,
      "ĠAN": 2844,
      "Ġsites": 2845,
      "âĢ²": 2846,
      "ours": 2847,
      "omal": 2848,
      "Ġlip": 2849,
      "Ġanalyzed": 2850,
      "ĠÂ°": 2851,
      "Ġwee": 2852,
      "tem": 2853,
      "Ġanother": 2854,
      "iles": 2855,
      "Ġcomplete": 2856,
      "Ġnext": 2857,
      "ĠOne": 2858,
      "bi": 2859,
      "rip": 2860,
      "state": 2861,
      "ĠModel": 2862,
      "Ġfindings": 2863,
      "ĠPre": 2864,
      "Ġrecent": 2865,
      "ascular": 2866,
      "Ġestimate": 2867,
      "Ġmechanisms": 2868,
      "ĠResults": 2869,
      "Ġparticipants": 2870,
      "Ġeng": 2871,
      "most": 2872,
      "ometric": 2873,
      "Ġequal": 2874,
      "Ġrob": 2875,
      "Ġpolar": 2876,
      "Ġgenetic": 2877,
      "Ġbo": 2878,
      "Ġrest": 2879,
      "ĠÏĢ": 2880,
      "Ġrelation": 2881,
      "Ġquestion": 2882,
      "epti": 2883,
      "Ġdiffic": 2884,
      "ems": 2885,
      "Ġfuture": 2886,
      "ify": 2887,
      "Ġmode": 2888,
      "Ġmembrane": 2889,
      "Ġheat": 2890,
      "Aut": 2891,
      "ding": 2892,
      "Ġoxid": 2893,
      "Ġconfig": 2894,
      "plication": 2895,
      "ĠMon": 2896,
      "allel": 2897,
      "ided": 2898,
      "Ġdirection": 2899,
      "pled": 2900,
      "Ġprovides": 2901,
      "Ġindicate": 2902,
      "Ġsets": 2903,
      "Ġtechnique": 2904,
      "Ġmac": 2905,
      "Ġhypot": 2906,
      "Ġatten": 2907,
      "Ġevent": 2908,
      "Ġstage": 2909,
      "Ġnode": 2910,
      "Ġreference": 2911,
      "Ġupper": 2912,
      "Ġtechniques": 2913,
      "Ġgreater": 2914,
      "Ġdirectly": 2915,
      "Ġareas": 2916,
      "Ġdiss": 2917,
      "hor": 2918,
      "ĠPol": 2919,
      "Ġevaluation": 2920,
      "Ġpatterns": 2921,
      "ĠAbstract": 2922,
      "Ġvirus": 2923,
      "vey": 2924,
      "PC": 2925,
      "Ġwomen": 2926,
      "rient": 2927,
      "Ġplasma": 2928,
      "Ġproduced": 2929,
      "ĠÎµ": 2930,
      "Ġanalyses": 2931,
      "ĠSub": 2932,
      "Ġsetting": 2933,
      "Ġmoment": 2934,
      "Ġthermal": 2935,
      "Ġoptimal": 2936,
      "Ġtaken": 2937,
      "Ġrecogn": 2938,
      "Ġvariation": 2939,
      "ĠLemma": 2940,
      "Ġsus": 2941,
      "frak": 2942,
      "ĠIL": 2943,
      "Ġprocedure": 2944,
      "hood": 2945,
      "Ġaim": 2946,
      "aries": 2947,
      "mathfrak": 2948,
      "Ġplant": 2949,
      "brid": 2950,
      "elect": 2951,
      "Ġvisual": 2952,
      "urs": 2953,
      "cence": 2954,
      "Ġfive": 2955,
      "Ġspatial": 2956,
      "Ġreceptor": 2957,
      "Ġindicated": 2958,
      "Ġess": 2959,
      "Ġconsistent": 2960,
      "Ġturn": 2961,
      "tices": 2962,
      "Ġexists": 2963,
      "ectors": 2964,
      "Ġenzym": 2965,
      "meric": 2966,
      "Ġnoise": 2967,
      "Ġground": 2968,
      "Ġestimated": 2969,
      "eline": 2970,
      "Ġchannel": 2971,
      "tition": 2972,
      "Ġdiscussed": 2973,
      "omer": 2974,
      "otes": 2975,
      "Ġexact": 2976,
      "ĠSec": 2977,
      "Ġtake": 2978,
      "Ġknowledge": 2979,
      "Ġprop": 2980,
      "Ġinflamm": 2981,
      "Ġdouble": 2982,
      "It": 2983,
      "Ġcontext": 2984,
      "ĠMed": 2985,
      "MA": 2986,
      "Ġfat": 2987,
      "ams": 2988,
      "data": 2989,
      "ands": 2990,
      "Ġcardi": 2991,
      "ĠFurthermore": 2992,
      "ocy": 2993,
      "Ġobservations": 2994,
      "apping": 2995,
      "ĠInf": 2996,
      "omial": 2997,
      "Ġpublic": 2998,
      "Ġemploy": 2999,
      "Ġreason": 3000,
      "ygen": 3001,
      "Ġfollowed": 3002,
      "Ġamount": 3003,
      "Ġcertain": 3004,
      "which": 3005,
      "otyp": 3006,
      "ĠCell": 3007,
      "Ġchall": 3008,
      "Ġparticle": 3009,
      "ambda": 3010,
      "Ġens": 3011,
      "Ġpeople": 3012,
      "ault": 3013,
      "ĠUnd": 3014,
      "ĠBe": 3015,
      "umin": 3016,
      "roscopy": 3017,
      "MR": 3018,
      "lation": 3019,
      "Ġrepe": 3020,
      "Ġable": 3021,
      "ĠSo": 3022,
      "ĠâĪŀ": 3023,
      "Ġenti": 3024,
      "Ġmove": 3025,
      "Ġtrac": 3026,
      "CO": 3027,
      "Ġheter": 3028,
      "Ġspeed": 3029,
      "Ġefficiency": 3030,
      "Ġoptical": 3031,
      "Ġcombination": 3032,
      "eness": 3033,
      "Ġchem": 3034,
      "LE": 3035,
      "appa": 3036,
      "Ġdecrease": 3037,
      "Î¼": 3038,
      "ped": 3039,
      "note": 3040,
      "ĠMulti": 3041,
      "Ġaltern": 3042,
      "Ġassume": 3043,
      "ĠForm": 3044,
      "stric": 3045,
      "que": 3046,
      "Ġiss": 3047,
      "urrent": 3048,
      "Ġprinc": 3049,
      "Ġtask": 3050,
      "ops": 3051,
      "Ġwhereas": 3052,
      "CH": 3053,
      "Ġrevealed": 3054,
      "Ġcannot": 3055,
      "active": 3056,
      "enz": 3057,
      "Ġfore": 3058,
      "Ġoperator": 3059,
      "Ġcolum": 3060,
      "atin": 3061,
      "Ġoriginal": 3062,
      "Ġsmaller": 3063,
      "Ġmaterials": 3064,
      "hydro": 3065,
      "Ġcurve": 3066,
      "Ġselection": 3067,
      "akes": 3068,
      "Ġexpos": 3069,
      "ats": 3070,
      "ĠÏī": 3071,
      "Ġpack": 3072,
      "Ġstability": 3073,
      "Ġoverall": 3074,
      "Ġmorph": 3075,
      "Ġmetric": 3076,
      "Ġol": 3077,
      "Ġbar": 3078,
      "ĠIN": 3079,
      "IM": 3080,
      "cy": 3081,
      "ethyl": 3082,
      "SP": 3083,
      "Ġresponses": 3084,
      "ancy": 3085,
      "Ġlay": 3086,
      "specific": 3087,
      "Ġvs": 3088,
      "aged": 3089,
      "Ġsocial": 3090,
      "Ġcut": 3091,
      "IP": 3092,
      "Ġlimited": 3093,
      "encies": 3094,
      "Ġprotoc": 3095,
      "Ġcomposition": 3096,
      "ĠThey": 3097,
      "Ġnumbers": 3098,
      "mbox": 3099,
      "Ġdecreased": 3100,
      "vec": 3101,
      "RO": 3102,
      "Authors": 3103,
      "Ġthick": 3104,
      "Ġcoordin": 3105,
      "Ġmes": 3106,
      "Ġaffect": 3107,
      "Ġclose": 3108,
      "Ġtransport": 3109,
      "CA": 3110,
      "rete": 3111,
      "come": 3112,
      "Ġcollected": 3113,
      "ĠFrom": 3114,
      "Ġcontains": 3115,
      "chit": 3116,
      "ĠDet": 3117,
      "Ġflux": 3118,
      "overy": 3119,
      "eu": 3120,
      "aff": 3121,
      "Ġconducted": 3122,
      "Ġcriter": 3123,
      "Ġliterature": 3124,
      "Ġmemory": 3125,
      "Ġsequences": 3126,
      "Ġpan": 3127,
      "plicit": 3128,
      "Ġtrue": 3129,
      "Ġmedium": 3130,
      "Ġdam": 3131,
      "ire": 3132,
      "cell": 3133,
      "Let": 3134,
      "eful": 3135,
      "ĠAmeric": 3136,
      "Ġnodes": 3137,
      "gether": 3138,
      "Ġtogether": 3139,
      "TP": 3140,
      "Ġrather": 3141,
      "Ġauthors": 3142,
      "Ġsch": 3143,
      "Ġprocessing": 3144,
      "Ġspectra": 3145,
      "Ġevaluated": 3146,
      "alk": 3147,
      "Ġreduce": 3148,
      "ĠHigh": 3149,
      "ĠCons": 3150,
      "Ġcycle": 3151,
      "orn": 3152,
      "iers": 3153,
      "Ġpropor": 3154,
      "ories": 3155,
      "rate": 3156,
      "Ġhost": 3157,
      "ooth": 3158,
      "ynt": 3159,
      "Ġsources": 3160,
      "Ġindividuals": 3161,
      "Ġaccount": 3162,
      "ĠAlthough": 3163,
      "Ġcorrec": 3164,
      "Ġplan": 3165,
      "entially": 3166,
      "Ġdistinc": 3167,
      "Ġsoil": 3168,
      "Ġsearch": 3169,
      "Ġmanagement": 3170,
      "Ġversion": 3171,
      "âĢĶ": 3172,
      "Ġfig": 3173,
      "ĠNote": 3174,
      "Ġhead": 3175,
      "ditional": 3176,
      "Ġbuild": 3177,
      "ĠGl": 3178,
      "asis": 3179,
      "group": 3180,
      "Ġdisplay": 3181,
      "ĠUniversity": 3182,
      "ootnote": 3183,
      "ameter": 3184,
      "minist": 3185,
      "opl": 3186,
      "ymph": 3187,
      "Lambda": 3188,
      "Ġidentify": 3189,
      "ĠStere": 3190,
      "ĠïĢ": 3191,
      "Ġprol": 3192,
      "ource": 3193,
      "icial": 3194,
      "Ġsimulations": 3195,
      "Ġthresh": 3196,
      "point": 3197,
      "earch": 3198,
      "elling": 3199,
      "ĠAcc": 3200,
      "Ġframework": 3201,
      "Ġstrength": 3202,
      "ĠAb": 3203,
      "ticles": 3204,
      "Ġcos": 3205,
      "Footnote": 3206,
      "ru": 3207,
      "ospital": 3208,
      "Ġstable": 3209,
      "Ġmotion": 3210,
      "Ġtested": 3211,
      "Ġtests": 3212,
      "aster": 3213,
      "ldots": 3214,
      "CL": 3215,
      "inite": 3216,
      "Ġspecial": 3217,
      "====": 3218,
      "Ġapproaches": 3219,
      "ping": 3220,
      "Ġconsum": 3221,
      "SD": 3222,
      "Ġjust": 3223,
      "kappa": 3224,
      "Ġthough": 3225,
      "faces": 3226,
      "Ġrapid": 3227,
      "ensive": 3228,
      "Ġnecessary": 3229,
      "Ġtub": 3230,
      "Ġforce": 3231,
      "Ġblack": 3232,
      "volution": 3233,
      "ĠAtom": 3234,
      "ĠHere": 3235,
      "itude": 3236,
      "ensions": 3237,
      "ffer": 3238,
      "rich": 3239,
      "Ġgives": 3240,
      "Ġshape": 3241,
      "Ġhard": 3242,
      "omp": 3243,
      "Ġrepresentation": 3244,
      "ling": 3245,
      "ĠDec": 3246,
      "Ġnumerical": 3247,
      "Ġplace": 3248,
      "Ġleading": 3249,
      "Ġbenef": 3250,
      "Ġregular": 3251,
      "Ġcluster": 3252,
      "Ġrelatively": 3253,
      "Ġpercent": 3254,
      "Ġautom": 3255,
      "Ġsympt": 3256,
      "ibri": 3257,
      "ches": 3258,
      "henyl": 3259,
      "car": 3260,
      "Ġillustr": 3261,
      "ports": 3262,
      "emic": 3263,
      "Ġgive": 3264,
      "Ġconven": 3265,
      "lection": 3266,
      "ĠĠĠĠĠĠĠĠĠĠĠĠ": 3267,
      "ĠAnd": 3268,
      "Ġfood": 3269,
      "mic": 3270,
      "ographic": 3271,
      "Ġcheck": 3272,
      "Ġability": 3273,
      "iquid": 3274,
      "Ġsubstr": 3275,
      "ĠâĪĨ": 3276,
      "Ġedge": 3277,
      "ĠPD": 3278,
      "Ġclassification": 3279,
      "Ġsurvival": 3280,
      "ĠCal": 3281,
      "erate": 3282,
      "Ġuseful": 3283,
      "Ġcarried": 3284,
      "Ġintensity": 3285,
      "HE": 3286,
      "ocenter": 3287,
      "Ġpathway": 3288,
      "Ġdefinition": 3289,
      "Ġscheme": 3290,
      "Ġsubsequ": 3291,
      "ĠFirst": 3292,
      "Ġconsequ": 3293,
      "ĠDiff": 3294,
      "Ġinhibit": 3295,
      "Ġamplit": 3296,
      "aser": 3297,
      "ĠNetwork": 3298,
      "normal": 3299,
      "ĠST": 3300,
      "Ġsolid": 3301,
      "perim": 3302,
      "comes": 3303,
      "Ġcyt": 3304,
      "odies": 3305,
      "IF": 3306,
      "radi": 3307,
      "Ġmor": 3308,
      "Ġcore": 3309,
      "BS": 3310,
      "********": 3311,
      "Ġsoftware": 3312,
      "ĠGu": 3313,
      "ired": 3314,
      "ident": 3315,
      "Ġdifficult": 3316,
      "use": 3317,
      "Ġadded": 3318,
      "ley": 3319,
      "Ġcaused": 3320,
      "gence": 3321,
      "Ġbase": 3322,
      "####": 3323,
      "ogenic": 3324,
      "from": 3325,
      "Ġstatus": 3326,
      "Ġassociation": 3327,
      "ĠStereocenter": 3328,
      "Ġgalax": 3329,
      "NO": 3330,
      "anguage": 3331,
      "Ġdimension": 3332,
      "ogenesis": 3333,
      "Ġemission": 3334,
      "Ġdeath": 3335,
      "ulin": 3336,
      "Ġagre": 3337,
      "turb": 3338,
      "nabl": 3339,
      "poral": 3340,
      "Ġpor": 3341,
      "Ġcombined": 3342,
      "Ġalgorithms": 3343,
      "Cs": 3344,
      "Ġsensitivity": 3345,
      "Ġallows": 3346,
      "Ġcapacity": 3347,
      "version": 3348,
      "Ġrestric": 3349,
      "rome": 3350,
      "Ġexposure": 3351,
      "hy": 3352,
      "anning": 3353,
      "Ġobject": 3354,
      "Ġcode": 3355,
      "fl": 3356,
      "roduction": 3357,
      "resents": 3358,
      "rup": 3359,
      "Ġtext": 3360,
      "ĠMat": 3361,
      "Ġleads": 3362,
      "Ġreson": 3363,
      "Ġproducts": 3364,
      "Ġwhole": 3365,
      "Ġmatter": 3366,
      "Phi": 3367,
      "opt": 3368,
      "encing": 3369,
      "fficients": 3370,
      "na": 3371,
      "pecially": 3372,
      "Ġhaving": 3373,
      "ropy": 3374,
      "Ġuncertain": 3375,
      "enari": 3376,
      "rical": 3377,
      "Ġminim": 3378,
      "Ġorigin": 3379,
      "uper": 3380,
      "ĠNon": 3381,
      "Ġevaluate": 3382,
      "Proof": 3383,
      "cap": 3384,
      "Ġsignaling": 3385,
      "Ġpolymer": 3386,
      "tically": 3387,
      "itten": 3388,
      "antit": 3389,
      "Ġuser": 3390,
      "level": 3391,
      "Ġmeasures": 3392,
      "Ġdynamic": 3393,
      "Ġmonths": 3394,
      "oti": 3395,
      "rand": 3396,
      "Ġuntil": 3397,
      "Ġdenote": 3398,
      "Ġnote": 3399,
      "Ġmaintain": 3400,
      "Ġkin": 3401,
      "scill": 3402,
      "Ġimaging": 3403,
      "Ġpain": 3404,
      "avy": 3405,
      "Ġmit": 3406,
      "othe": 3407,
      "Ġregul": 3408,
      "known": 3409,
      "Ġplot": 3410,
      "nabla": 3411,
      "Ġfraction": 3412,
      "wer": 3413,
      "Ġstrategy": 3414,
      "Ġgreat": 3415,
      "Ġdataset": 3416,
      "Ġunique": 3417,
      "CM": 3418,
      "Ġtw": 3419,
      "han": 3420,
      "ĠEu": 3421,
      "andid": 3422,
      "Ġbackground": 3423,
      "Ġbroad": 3424,
      "ilt": 3425,
      "Ġimproved": 3426,
      "Ġdiagnosis": 3427,
      "ious": 3428,
      "Ġdig": 3429,
      "rem": 3430,
      "era": 3431,
      "Ġexcl": 3432,
      "Ġmetal": 3433,
      "Ġsix": 3434,
      "Ġminimum": 3435,
      "usions": 3436,
      "ee": 3437,
      "Ġcompounds": 3438,
      "Ġasp": 3439,
      "Ġeth": 3440,
      "Ġdetect": 3441,
      "ference": 3442,
      "ĠÎ·": 3443,
      "Ġstatistical": 3444,
      "atives": 3445,
      "ris": 3446,
      "Ġtheorem": 3447,
      "ĠOF": 3448,
      "ww": 3449,
      "arily": 3450,
      "ception": 3451,
      "iving": 3452,
      "Ġtesting": 3453,
      "Ġdiagnos": 3454,
      "Ġrepresents": 3455,
      "Sigma": 3456,
      "onical": 3457,
      "Ġequivalent": 3458,
      "Ġbiom": 3459,
      "Ġsubst": 3460,
      "raints": 3461,
      "ĠRef": 3462,
      "Ġscore": 3463,
      "Ġdoc": 3464,
      "Ġimplies": 3465,
      "eter": 3466,
      "Ġsynthesis": 3467,
      "ilibri": 3468,
      "attering": 3469,
      "CS": 3470,
      "alse": 3471,
      "Ġneuro": 3472,
      "Ġalthough": 3473,
      "irus": 3474,
      "methyl": 3475,
      "Ġtranscription": 3476,
      "ÏĢ": 3477,
      "ĠMolecular": 3478,
      "Ġcause": 3479,
      "mut": 3480,
      "ĠId": 3481,
      "Î»": 3482,
      "add": 3483,
      "Ġplac": 3484,
      "Ġagg": 3485,
      "ture": 3486,
      "Ġlack": 3487,
      "Ġprediction": 3488,
      "raw": 3489,
      "An": 3490,
      "Ġult": 3491,
      "ynomial": 3492,
      "Ġimmune": 3493,
      "ili": 3494,
      "Ġprep": 3495,
      "Î³": 3496,
      "class": 3497,
      "Ġmach": 3498,
      "ample": 3499,
      "Ġresolution": 3500,
      "Ġcoupling": 3501,
      "seud": 3502,
      "Ġindicates": 3503,
      "Ġgeneration": 3504,
      "Ġhar": 3505,
      "Ġfund": 3506,
      "scale": 3507,
      "Ġeigen": 3508,
      "ĠRel": 3509,
      "abor": 3510,
      "ĠCH": 3511,
      "ext": 3512,
      "amm": 3513,
      "Ġcorrect": 3514,
      "Ġscreen": 3515,
      "Ġstructural": 3516,
      "ĠpH": 3517,
      "Ġrelevant": 3518,
      "Ġangle": 3519,
      "IG": 3520,
      "Ġalgebra": 3521,
      "helial": 3522,
      "Ġworld": 3523,
      "Ġcurves": 3524,
      "ĠIntroduction": 3525,
      "Ġthird": 3526,
      "Ġintroduced": 3527,
      "Big": 3528,
      "no": 3529,
      "auss": 3530,
      "subset": 3531,
      "Ġtransmission": 3532,
      "Ġprofile": 3533,
      "ĠÎ½": 3534,
      "Ġespecially": 3535,
      "Ġattrib": 3536,
      "uction": 3537,
      "Ġcoefficients": 3538,
      "Ġremains": 3539,
      "Ġneigh": 3540,
      "osen": 3541,
      "Ġreli": 3542,
      "Ġhighest": 3543,
      "Ġuniform": 3544,
      "Ġfar": 3545,
      "chitect": 3546,
      "||": 3547,
      "Ġappropri": 3548,
      "plex": 3549,
      "ĠMass": 3550,
      "ogeneous": 3551,
      "ales": 3552,
      "Ġrefer": 3553,
      "Ġneeded": 3554,
      "Ġdifferential": 3555,
      "ceed": 3556,
      "$$": 3557,
      "ynamic": 3558,
      "Ġsex": 3559,
      "Ġspectral": 3560,
      "char": 3561,
      "PE": 3562,
      "TS": 3563,
      "Ġapproximately": 3564,
      "value": 3565,
      "Ġhalf": 3566,
      "ending": 3567,
      "Ġgradi": 3568,
      "Ġcoefficient": 3569,
      "ĠPhys": 3570,
      "Ġconcer": 3571,
      "Ġlabel": 3572,
      "iral": 3573,
      "Ġcharge": 3574,
      "Ġoxygen": 3575,
      "Ġdevi": 3576,
      "Ġinternal": 3577,
      "Ġexpans": 3578,
      "load": 3579,
      "ĠSm": 3580,
      "rang": 3581,
      "Con": 3582,
      "ĠNa": 3583,
      "Ġke": 3584,
      "Ġdiab": 3585,
      "ached": 3586,
      "Ġlocation": 3587,
      "Ġvolt": 3588,
      "ĠDisc": 3589,
      "---": 3590,
      "ocytes": 3591,
      "oretical": 3592,
      "Ġgain": 3593,
      "Ġmedi": 3594,
      "ympt": 3595,
      "oted": 3596,
      "ĠVal": 3597,
      "Ġcommunity": 3598,
      "plementary": 3599,
      "Ġtree": 3600,
      "ĠTwo": 3601,
      "Ġwhose": 3602,
      "Ġdone": 3603,
      "amine": 3604,
      "Ġbiological": 3605,
      "inks": 3606,
      "Ġalmost": 3607,
      "Ġslight": 3608,
      "Ġrepro": 3609,
      "ģĦ": 3610,
      "Ġtherap": 3611,
      "ocation": 3612,
      "Ġgly": 3613,
      "ĠEqu": 3614,
      "Ġcolor": 3615,
      "Ġnam": 3616,
      "section": 3617,
      "ĠEm": 3618,
      "ready": 3619,
      "Hz": 3620,
      "PD": 3621,
      "function": 3622,
      "change": 3623,
      "Ġprincip": 3624,
      "Ġbecome": 3625,
      "ĠâĢĺ": 3626,
      "Ġcour": 3627,
      "Ġlocated": 3628,
      "Ġrang": 3629,
      "inity": 3630,
      "Ġinterval": 3631,
      "gin": 3632,
      "Ġinvestigate": 3633,
      "free": 3634,
      "Ġvitro": 3635,
      "Ġsubset": 3636,
      "Ġmov": 3637,
      "Ġprove": 3638,
      "Ġliver": 3639,
      "ategor": 3640,
      "etes": 3641,
      "Ġlymph": 3642,
      "dom": 3643,
      "ĠElect": 3644,
      "Ġserum": 3645,
      "Ġscenari": 3646,
      "ends": 3647,
      "ĠFinally": 3648,
      "Ġfilter": 3649,
      "IL": 3650,
      "Ġabund": 3651,
      "mentation": 3652,
      "imals": 3653,
      "num": 3654,
      "enced": 3655,
      "Ġproperty": 3656,
      "matrix": 3657,
      "ĠCompar": 3658,
      "Ġland": 3659,
      "ĠChar": 3660,
      "ressive": 3661,
      "ulus": 3662,
      "Ġbone": 3663,
      "Ex": 3664,
      "Ġradiation": 3665,
      "Ġsuggested": 3666,
      "ĠComput": 3667,
      "Ġthreshold": 3668,
      "ĠAD": 3669,
      "Ġhor": 3670,
      "Ġinduc": 3671,
      "Ġapproximation": 3672,
      "Ġadminist": 3673,
      "Ġord": 3674,
      "Ġlung": 3675,
      "Ġreceived": 3676,
      "Ġnorm": 3677,
      "Ġestimates": 3678,
      "Ġlaw": 3679,
      "Ġoutcomes": 3680,
      "ĠPr": 3681,
      "Ġdepth": 3682,
      "Ġelse": 3683,
      "Ġcontribution": 3684,
      "hetic": 3685,
      "Ġconserv": 3686,
      "Ġupon": 3687,
      "Ġdeep": 3688,
      "MD": 3689,
      "Ġmel": 3690,
      "Ġfilm": 3691,
      "ilibrium": 3692,
      "Ġoscill": 3693,
      "olved": 3694,
      "Ġbreast": 3695,
      "CP": 3696,
      "ĠDist": 3697,
      "rices": 3698,
      "inated": 3699,
      "Ġoptimization": 3700,
      "Ġpredicted": 3701,
      "sf": 3702,
      "dim": 3703,
      "ĠSN": 3704,
      "Ġavoid": 3705,
      "Ġneural": 3706,
      "Ġwa": 3707,
      "rope": 3708,
      "Ġdistributions": 3709,
      "oxid": 3710,
      "Ġsmooth": 3711,
      "path": 3712,
      "Ġfluid": 3713,
      "Ġsaf": 3714,
      "Ġchoice": 3715,
      "AA": 3716,
      "Ġmolecules": 3717,
      "US": 3718,
      "Ġalways": 3719,
      "ivo": 3720,
      "Ġregression": 3721,
      "Ġsuccessful": 3722,
      "Ġwall": 3723,
      "oung": 3724,
      "Ġactivities": 3725,
      "Ġdependence": 3726,
      "Ġrequires": 3727,
      "Ġplane": 3728,
      "Ġdesigned": 3729,
      "PI": 3730,
      "down": 3731,
      "Ġpopulations": 3732,
      "cor": 3733,
      "mediate": 3734,
      "Ġdose": 3735,
      "Ġbond": 3736,
      "Co": 3737,
      "ĠMan": 3738,
      "Ġdiagram": 3739,
      "gs": 3740,
      "Ġtool": 3741,
      "Ġisolated": 3742,
      "Ġversus": 3743,
      "ney": 3744,
      "Ġemerg": 3745,
      "ĠAut": 3746,
      "aim": 3747,
      "field": 3748,
      "Ġexamined": 3749,
      "Ġsat": 3750,
      "SM": 3751,
      "ĠSpec": 3752,
      "Ġparallel": 3753,
      "isation": 3754,
      "Ġdistinct": 3755,
      "Ġpredict": 3756,
      "Ġfer": 3757,
      "Ġunderstanding": 3758,
      "ĠSimilar": 3759,
      "ĠĠĠĠĠĠĠĠĠĠĠĠĠĠĠĠĠĠĠĠĠĠĠĠĠĠĠĠĠĠĠĠ": 3760,
      "udes": 3761,
      "Ġorient": 3762,
      "hic": 3763,
      "uz": 3764,
      "Ġmodified": 3765,
      "ĠâĪ¼": 3766,
      "FF": 3767,
      "There": 3768,
      "Ġtrial": 3769,
      "xy": 3770,
      "gery": 3771,
      "Ġalready": 3772,
      "define": 3773,
      "ming": 3774,
      "ĠSD": 3775,
      "Ġmonitor": 3776,
      "Ġpsy": 3777,
      "Ġbecomes": 3778,
      "istry": 3779,
      "ĠÎĵ": 3780,
      "Ġhum": 3781,
      "rier": 3782,
      "ession": 3783,
      "Ġhistory": 3784,
      "Ã¶": 3785,
      "ĠÎ¾": 3786,
      "Ġestablished": 3787,
      "Ġachieved": 3788,
      "estern": 3789,
      "ÏĨ": 3790,
      "ĠHence": 3791,
      "Ġassessment": 3792,
      "otor": 3793,
      "Ġdescribe": 3794,
      "ochond": 3795,
      "ylation": 3796,
      "sts": 3797,
      "space": 3798,
      "Ġdiseases": 3799,
      "jection": 3800,
      "Ġslow": 3801,
      "Ġnonlinear": 3802,
      "ply": 3803,
      "ml": 3804,
      "Ġembed": 3805,
      "comp": 3806,
      "Ġefficient": 3807,
      "Ġoperation": 3808,
      "Ġcontact": 3809,
      "oz": 3810,
      "Ġinvari": 3811,
      "Ġcenter": 3812,
      "Ġconc": 3813,
      "widetilde": 3814,
      "Ġbeam": 3815,
      "Ġclosed": 3816,
      "ĠMethods": 3817,
      "Ġchronic": 3818,
      "aling": 3819,
      "Ġsevere": 3820,
      "Ġforms": 3821,
      "ilit": 3822,
      "side": 3823,
      "pen": 3824,
      "Ġbran": 3825,
      "oud": 3826,
      "tality": 3827,
      "Ġmaps": 3828,
      "acts": 3829,
      "OL": 3830,
      "PR": 3831,
      "ĠÍ": 3832,
      "sl": 3833,
      "Ġinstance": 3834,
      "ully": 3835,
      "Ġestimation": 3836,
      "Ġplate": 3837,
      "Ġdevice": 3838,
      "ĠIII": 3839,
      "sin": 3840,
      "Ġplants": 3841,
      "ittle": 3842,
      "Ġproduce": 3843,
      "Ġhence": 3844,
      "Ġnature": 3845,
      "Ġrelease": 3846,
      "ĠMin": 3847,
      "rict": 3848,
      "Ġconnected": 3849,
      "ottom": 3850,
      "ellar": 3851,
      "Ġformed": 3852,
      "Ġmob": 3853,
      "Ġcomputed": 3854,
      "ĠRE": 3855,
      "Ġpolynomial": 3856,
      "Ġliquid": 3857,
      "gn": 3858,
      "Ġassay": 3859,
      "Ġmanif": 3860,
      "ĠSi": 3861,
      "rence": 3862,
      "Ġaxis": 3863,
      "VID": 3864,
      "Ġsignals": 3865,
      "Î¸": 3866,
      "tok": 3867,
      "ds": 3868,
      "Ġrats": 3869,
      "Ġtor": 3870,
      "olecular": 3871,
      "ched": 3872,
      "Ġdescri": 3873,
      "Ġexpon": 3874,
      "Ġperturb": 3875,
      "Ġgluc": 3876,
      "Ġcolumn": 3877,
      "UL": 3878,
      "Ġmainly": 3879,
      "Ġmul": 3880,
      "ider": 3881,
      "ĠCR": 3882,
      "Ġcataly": 3883,
      "Ġlaser": 3884,
      "tioned": 3885,
      "den": 3886,
      "Ġsuggests": 3887,
      "fig": 3888,
      "Ġpropag": 3889,
      "org": 3890,
      "rep": 3891,
      "Ġcharacterized": 3892,
      "ologies": 3893,
      "Ġaccum": 3894,
      "Ġvary": 3895,
      "Ġcontrolled": 3896,
      "Ġupd": 3897,
      "ĠBr": 3898,
      "Ġentire": 3899,
      "Ġ@": 3900,
      "âģĦ": 3901,
      "ĠÌ": 3902,
      "Ġdatab": 3903,
      "ano": 3904,
      "amil": 3905,
      "Ġadjust": 3906,
      "ye": 3907,
      "pression": 3908,
      "erences": 3909,
      "Ġessential": 3910,
      "ĠHydro": 3911,
      "ĠTr": 3912,
      "Ġappropriate": 3913,
      "Ġformula": 3914,
      "Ġlattice": 3915,
      "Ġacute": 3916,
      "Ġusually": 3917,
      "itable": 3918,
      "Ġmar": 3919,
      "ĠÎ¼m": 3920,
      "ĠUSA": 3921,
      "Ġincub": 3922,
      "ocks": 3923,
      "Ġpepti": 3924,
      "iddle": 3925,
      "Ġdecom": 3926,
      "Ġdamage": 3927,
      "Ġgenome": 3928,
      "Ġmouse": 3929,
      "circ": 3930,
      "Ġlayers": 3931,
      "Ġtrack": 3932,
      "Ġtox": 3933,
      "Ġreplac": 3934,
      "Ġadvant": 3935,
      "izon": 3936,
      "Ġrecorded": 3937,
      "Ġstart": 3938,
      "Ġrank": 3939,
      "ser": 3940,
      "ĠGene": 3941,
      "aussian": 3942,
      "ingu": 3943,
      "Ġconstraints": 3944,
      "flow": 3945,
      "Ġmig": 3946,
      "PL": 3947,
      "Ġincor": 3948,
      "appro": 3949,
      "Ġfast": 3950,
      "Ġmuscle": 3951,
      "Ġhome": 3952,
      "eq": 3953,
      "ĠÏĪ": 3954,
      "Ġstrongly": 3955,
      "ĠEurope": 3956,
      "Ġsubjects": 3957,
      "Ġobjects": 3958,
      "test": 3959,
      "tered": 3960,
      "ĠWhile": 3961,
      "Ġsymmetry": 3962,
      "Ġquantif": 3963,
      "``": 3964,
      "Ġbreak": 3965,
      "ĠExperim": 3966,
      "Ġmixt": 3967,
      "<<": 3968,
      "ĠChina": 3969,
      "ĠIdentif": 3970,
      "Ġaffected": 3971,
      "Ġsecondary": 3972,
      "Ġinequ": 3973,
      "incl": 3974,
      "EG": 3975,
      "FT": 3976,
      "Ġfailure": 3977,
      "ectiv": 3978,
      "Ġkm": 3979,
      "Ġsampling": 3980,
      "Ġexpansion": 3981,
      "Ġpractice": 3982,
      "uations": 3983,
      "ognitive": 3984,
      "Ġdiet": 3985,
      "Ġtemperatures": 3986,
      "Ġcontrols": 3987,
      "Ġchosen": 3988,
      "Ġgenerally": 3989,
      "ancer": 3990,
      "Ġdegrad": 3991,
      "uli": 3992,
      "sm": 3993,
      "otherapy": 3994,
      "Ġtowards": 3995,
      "ĠProperties": 3996,
      "Ġclusters": 3997,
      "Ġdelay": 3998,
      "Ġhep": 3999,
      "PA": 4000,
      "ĠStudy": 4001,
      "antitative": 4002,
      "Ġclassical": 4003,
      "ĠZh": 4004,
      "ĠÎ©": 4005,
      "ĠBo": 4006,
      "Ġseed": 4007,
      "ĠStruct": 4008,
      "Ġtrend": 4009,
      "iological": 4010,
      "Ġconfirmed": 4011,
      "Ġdistributed": 4012,
      "bial": 4013,
      "Ġname": 4014,
      "CN": 4015,
      "valence": 4016,
      "erior": 4017,
      "iven": 4018,
      "ned": 4019,
      "Ġbehaviour": 4020,
      "asks": 4021,
      "gra": 4022,
      "mark": 4023,
      "Ġerrors": 4024,
      "ĠRep": 4025,
      "light": 4026,
      "cript": 4027,
      "If": 4028,
      "Ġcandid": 4029,
      "Ġdepends": 4030,
      "ĠNational": 4031,
      "Ġholds": 4032,
      "Ġprotocol": 4033,
      "ĠUnited": 4034,
      "Ġinterface": 4035,
      "Ġexpect": 4036,
      "Ġïģ": 4037,
      "ĠHIV": 4038,
      "Ġroot": 4039,
      "Ġscattering": 4040,
      "words": 4041,
      "Ġobservation": 4042,
      "otop": 4043,
      "Ġoccurs": 4044,
      "ources": 4045,
      "pite": 4046,
      "ĠSte": 4047,
      "Ġorth": 4048,
      "Ġstain": 4049,
      "Ġsteps": 4050,
      "Ġcompare": 4051,
      "Ġbasic": 4052,
      "Ġinhibition": 4053,
      "Ġsymptoms": 4054,
      "ĠHealth": 4055,
      "Ġpublished": 4056,
      "fold": 4057,
      "Ġtun": 4058,
      "Ġvivo": 4059,
      "Ġreconstr": 4060,
      "ĠmRNA": 4061,
      "icy": 4062,
      "Ġhybrid": 4063,
      "yr": 4064,
      "Ġmixed": 4065,
      "vis": 4066,
      "ChI": 4067,
      "Ġmedical": 4068,
      "Ġfrag": 4069,
      "Ġanimals": 4070,
      "Ġimportance": 4071,
      "Ġengine": 4072,
      "ĠCT": 4073,
      "Ġpairs": 4074,
      "Ġbal": 4075,
      "ĠEar": 4076,
      "hers": 4077,
      "Ġsynd": 4078,
      "Ġarchitect": 4079,
      "Ġidentification": 4080,
      "Ġstrategies": 4081,
      "Ġregulation": 4082,
      "ĠLa": 4083,
      "ror": 4084,
      "Ġfluores": 4085,
      "urity": 4086,
      "Ġconcept": 4087,
      "Ġattention": 4088,
      "Ġtransformation": 4089,
      "ucle": 4090,
      "ĠResearch": 4091,
      "Ġsimpl": 4092,
      "Ġculture": 4093,
      "aring": 4094,
      "ifically": 4095,
      "pir": 4096,
      "ze": 4097,
      "PT": 4098,
      "mosp": 4099,
      "Ġswit": 4100,
      "Ġnor": 4101,
      "Ġenhance": 4102,
      "Ġenvironmental": 4103,
      "rary": 4104,
      "ĠMicro": 4105,
      "Ġwide": 4106,
      "opath": 4107,
      "auge": 4108,
      "zeta": 4109,
      "Ġste": 4110,
      "ĠEl": 4111,
      "Ġwords": 4112,
      "Ġnuclear": 4113,
      "Ġlanguage": 4114,
      "Ġdetails": 4115,
      "opar": 4116,
      "ĠRed": 4117,
      "water": 4118,
      "Ġcategor": 4119,
      "Ġfile": 4120,
      "Ġcover": 4121,
      "Ġachieve": 4122,
      "Ã¡": 4123,
      "umm": 4124,
      "Ġlig": 4125,
      "Ġsurvey": 4126,
      "Ġextended": 4127,
      "lab": 4128,
      "ĠInc": 4129,
      "Ġdispers": 4130,
      "Ġrecomm": 4131,
      "ĠBased": 4132,
      "Ġabsence": 4133,
      "Ġconstruction": 4134,
      "Ġpoor": 4135,
      "Ġvoltage": 4136,
      "Ġcellular": 4137,
      "Ġmortality": 4138,
      "Ġshowing": 4139,
      "Ġprolif": 4140,
      "mp": 4141,
      "Ġneurons": 4142,
      "Ġsupported": 4143,
      "Ġprevent": 4144,
      "eli": 4145,
      "oxy": 4146,
      "ica": 4147,
      "Ġfully": 4148,
      "Ġenough": 4149,
      "otimes": 4150,
      "ĠMR": 4151,
      "Ġbul": 4152,
      "Ġphenomen": 4153,
      "FA": 4154,
      "Ġdecision": 4155,
      "Ġdual": 4156,
      "Ġdecay": 4157,
      "Ġown": 4158,
      "Ġuses": 4159,
      "Ġchalleng": 4160,
      "Ġaddress": 4161,
      "OC": 4162,
      "tivation": 4163,
      "Ġmill": 4164,
      "Ġmodes": 4165,
      "atus": 4166,
      "iction": 4167,
      "Ġabsorption": 4168,
      "Ġepit": 4169,
      "Ġconstra": 4170,
      "Ġagreement": 4171,
      "ĠAf": 4172,
      "Ġbias": 4173,
      "uded": 4174,
      "Ġparts": 4175,
      "Ġvan": 4176,
      "Ġcolon": 4177,
      "Ġexternal": 4178,
      "Ġtheoretical": 4179,
      "asi": 4180,
      "Ġles": 4181,
      "abilities": 4182,
      "LA": 4183,
      "ttps": 4184,
      "Ġinstead": 4185,
      "Ġmembers": 4186,
      "++": 4187,
      "Ġrecently": 4188,
      "Ġprepared": 4189,
      "Ġarticle": 4190,
      "day": 4191,
      "Ġextract": 4192,
      "Ġâİ": 4193,
      "Ġpathways": 4194,
      "ÏĦ": 4195,
      "mid": 4196,
      "orage": 4197,
      "Ġcommunication": 4198,
      "Ġaccel": 4199,
      "Ġunits": 4200,
      "itis": 4201,
      "ynthesis": 4202,
      "Ġamplitude": 4203,
      "rie": 4204,
      "ultaneous": 4205,
      "ĠLear": 4206,
      "ecause": 4207,
      "do": 4208,
      "eff": 4209,
      "Ġexplicit": 4210,
      "Ġcriteria": 4211,
      "bre": 4212,
      "Ġexec": 4213,
      "Ġmechanical": 4214,
      "eros": 4215,
      "ĠConcl": 4216,
      "ĠExt": 4217,
      "Ġclasses": 4218,
      "Ġlonger": 4219,
      "Ġcalculations": 4220,
      "eutic": 4221,
      "ociated": 4222,
      "ardi": 4223,
      "Ġcourse": 4224,
      "Ġpartial": 4225,
      "Ġsensor": 4226,
      "Ïĥ": 4227,
      "Ġoperators": 4228,
      "ĠAmerican": 4229,
      "ĠmM": 4230,
      "Ġvacc": 4231,
      "occ": 4232,
      "icon": 4233,
      "Ġoutcome": 4234,
      "Ġanalog": 4235,
      "Ġthickness": 4236,
      "Ġreach": 4237,
      "Ġassumed": 4238,
      "ender": 4239,
      "Ġmale": 4240,
      "SE": 4241,
      "Ġintra": 4242,
      "Ġimplementation": 4243,
      "emia": 4244,
      "Ġenhanced": 4245,
      "bility": 4246,
      "Ġeasily": 4247,
      "ump": 4248,
      "Ġcarcin": 4249,
      "osa": 4250,
      "Ġcorresponds": 4251,
      "neg": 4252,
      "Ġmagnitude": 4253,
      "const": 4254,
      "Ġlatter": 4255,
      "Ġrepresented": 4256,
      "Ġsed": 4257,
      "Ġparticularly": 4258,
      "Ġwritten": 4259,
      "part": 4260,
      "Ġoil": 4261,
      "berg": 4262,
      "ĠBar": 4263,
      "Ġdys": 4264,
      "ĠSome": 4265,
      "ĠMar": 4266,
      "Ġalternative": 4267,
      "ĠGerm": 4268,
      "Ġgenerate": 4269,
      "Ġconstruct": 4270,
      "ians": 4271,
      "stream": 4272,
      "Ġec": 4273,
      "ochemical": 4274,
      "ibration": 4275,
      "operative": 4276,
      "ister": 4277,
      "Ġrobust": 4278,
      "tre": 4279,
      "Ġmodeling": 4280,
      "oring": 4281,
      "ese": 4282,
      "ded": 4283,
      "ideo": 4284,
      "Ġhydrogen": 4285,
      "uments": 4286,
      "Ġdemonstrate": 4287,
      "Ġcorrelated": 4288,
      "Ġsystematic": 4289,
      "Ġsurgery": 4290,
      "Ġindicating": 4291,
      "Ġhypothesis": 4292,
      "year": 4293,
      "mitted": 4294,
      "Ġstars": 4295,
      "Ġprofiles": 4296,
      "Ġconsists": 4297,
      "tri": 4298,
      "Ġdependent": 4299,
      "ishing": 4300,
      "top": 4301,
      "Ġheart": 4302,
      "atically": 4303,
      "Ġinjury": 4304,
      "Ġquad": 4305,
      "Ġweeks": 4306,
      "uting": 4307,
      "ĠTe": 4308,
      "Ġidenti": 4309,
      "Ġgradient": 4310,
      "Ġcalculation": 4311,
      "Ġur": 4312,
      "RT": 4313,
      "zation": 4314,
      "Ġeduc": 4315,
      "ening": 4316,
      "PP": 4317,
      "zed": 4318,
      "ush": 4319,
      "Ġcharacteristic": 4320,
      "Ġstrains": 4321,
      "eth": 4322,
      "Ġdivers": 4323,
      "âĪĪ": 4324,
      "oids": 4325,
      "olic": 4326,
      "Ġinterpret": 4327,
      "Key": 4328,
      "Ġattack": 4329,
      "pective": 4330,
      "Ġlabor": 4331,
      "Ġmetast": 4332,
      "NF": 4333,
      "Ġtissues": 4334,
      "Ġradius": 4335,
      "ĠEach": 4336,
      "Ġcat": 4337,
      "Ġdon": 4338,
      "Ġelev": 4339,
      "Ġassemb": 4340,
      "rons": 4341,
      "Ġarbit": 4342,
      "Ġpanel": 4343,
      "Ġgrid": 4344,
      "Ġtable": 4345,
      "roscopic": 4346,
      "Ġcle": 4347,
      "ĠIntern": 4348,
      "obacter": 4349,
      "Ġassumption": 4350,
      "ĠCOVID": 4351,
      "Ġbounded": 4352,
      "Ġothers": 4353,
      "Ġschool": 4354,
      "Ġhospital": 4355,
      "lected": 4356,
      "ĠCu": 4357,
      "ÃĹ": 4358,
      "Ġcomplet": 4359,
      "Ġwidth": 4360,
      "Ġlinks": 4361,
      "po": 4362,
      "ollow": 4363,
      "Ġnut": 4364,
      "Ġappears": 4365,
      "rown": 4366,
      "aro": 4367,
      "Ġusers": 4368,
      "Ġclim": 4369,
      "Ġslightly": 4370,
      "Ġblue": 4371,
      "rab": 4372,
      "ĠSer": 4373,
      "Ġfigure": 4374,
      "ĠRad": 4375,
      "Ġelectric": 4376,
      "mm": 4377,
      "ochastic": 4378,
      "rief": 4379,
      "Ġcollection": 4380,
      "Ġstem": 4381,
      "Ġgover": 4382,
      "Ġbur": 4383,
      "Ġtypical": 4384,
      "sup": 4385,
      "Ġaggreg": 4386,
      "raz": 4387,
      "ĉĉĉ": 4388,
      "Ġstation": 4389,
      "Ġarter": 4390,
      "ively": 4391,
      "itrogen": 4392,
      "Ġconstit": 4393,
      "empt": 4394,
      "ĠEffect": 4395,
      "Ġdescription": 4396,
      "Ġscores": 4397,
      "Ġmethyl": 4398,
      "ĠOb": 4399,
      "ĠStates": 4400,
      "Ġsplit": 4401,
      "ĠVari": 4402,
      "ĠWang": 4403,
      "Ġcere": 4404,
      "ĠFran": 4405,
      "Ġneeds": 4406,
      "ĠFour": 4407,
      "Ġproject": 4408,
      "Ġdevices": 4409,
      "Ġintegral": 4410,
      "ĠEs": 4411,
      "ymmetric": 4412,
      "Ġmess": 4413,
      "Ġplays": 4414,
      "ĠLearning": 4415,
      "Ġoverl": 4416,
      "Here": 4417,
      "ignment": 4418,
      "Ġdeliver": 4419,
      "apan": 4420,
      "CE": 4421,
      "Ġgauge": 4422,
      "ĠJoh": 4423,
      "----------------": 4424,
      "Ġunderlying": 4425,
      "Ġthin": 4426,
      "Ġassessed": 4427,
      "Ġdiffusion": 4428,
      "Ġheight": 4429,
      "ĠSw": 4430,
      "Ġdark": 4431,
      "print": 4432,
      "range": 4433,
      "ĠCI": 4434,
      "ises": 4435,
      "lier": 4436,
      "rant": 4437,
      "omorphism": 4438,
      "Ġcompact": 4439,
      "ips": 4440,
      "ĠName": 4441,
      "Ġtechnology": 4442,
      "agen": 4443,
      "Ġconfiguration": 4444,
      "Ġduration": 4445,
      "ĠClass": 4446,
      "Ġput": 4447,
      "Ġmaking": 4448,
      "Ġasympt": 4449,
      "aid": 4450,
      "Ġcoh": 4451,
      "Ġcomplexity": 4452,
      "Ġsections": 4453,
      "ĠMD": 4454,
      "ĠĠĠĠĠĠĠĠĠ": 4455,
      "Ġrad": 4456,
      "Ġsubstrate": 4457,
      "dd": 4458,
      "Ġann": 4459,
      "Ġorganic": 4460,
      "Ġtaking": 4461,
      "Ġincludes": 4462,
      "Ġkine": 4463,
      "ares": 4464,
      "Ġrow": 4465,
      "ategory": 4466,
      "Ġmitochond": 4467,
      "UT": 4468,
      "Ġsyndrome": 4469,
      "ĠProb": 4470,
      "retion": 4471,
      "Ġfluct": 4472,
      "ĠDis": 4473,
      "Ġtransl": 4474,
      "plas": 4475,
      "Ġpsych": 4476,
      "Ġsurfaces": 4477,
      "Ġdetailed": 4478,
      "amilton": 4479,
      "Ġhold": 4480,
      "ĠâĬĹ": 4481,
      "ĠCN": 4482,
      "Ġdil": 4483,
      "ĠOver": 4484,
      "atform": 4485,
      "Ġvertical": 4486,
      "Ġcomputation": 4487,
      "Ġpure": 4488,
      "Ġmakes": 4489,
      "Ġexisting": 4490,
      "Ġexamples": 4491,
      "SO": 4492,
      "orders": 4493,
      "Ġmix": 4494,
      "Ġincorpor": 4495,
      "Ġrequ": 4496,
      "antic": 4497,
      "DNA": 4498,
      "Î´": 4499,
      "Ġcloud": 4500,
      "ĠTechn": 4501,
      "Ġïĥ": 4502,
      "ements": 4503,
      "Ġbaseline": 4504,
      "stein": 4505,
      "Ġbelong": 4506,
      "Ġtrials": 4507,
      "Ġhorizon": 4508,
      "Ġphosphor": 4509,
      "Ġans": 4510,
      "dix": 4511,
      "roid": 4512,
      "Ġapply": 4513,
      "ued": 4514,
      "ernel": 4515,
      "Ġfemale": 4516,
      "icacy": 4517,
      "Ġvectors": 4518,
      "Ġmatrices": 4519,
      "atric": 4520,
      "ĠMc": 4521,
      "Ġpy": 4522,
      "Ġchlor": 4523,
      "len": 4524,
      "Ġclearly": 4525,
      "static": 4526,
      "ref": 4527,
      "ĠSouth": 4528,
      "Ġmedia": 4529,
      "ĠShe": 4530,
      "ĠBay": 4531,
      "Ġagents": 4532,
      "By": 4533,
      "Ġdifferentiation": 4534,
      "istant": 4535,
      "orphic": 4536,
      "Ġvariety": 4537,
      "Ġservice": 4538,
      "Ġmapping": 4539,
      "velength": 4540,
      "Ġchannels": 4541,
      "Ġcompute": 4542,
      "Ġstream": 4543,
      "uls": 4544,
      "amide": 4545,
      "oking": 4546,
      "vit": 4547,
      "Ġyields": 4548,
      "omb": 4549,
      "ĠGaussian": 4550,
      "Ġpen": 4551,
      "une": 4552,
      "Ġexperience": 4553,
      "band": 4554,
      "ĠDo": 4555,
      "mathsf": 4556,
      "Ġallowed": 4557,
      "Ar": 4558,
      "RA": 4559,
      "Ġbacterial": 4560,
      "Ġmiss": 4561,
      "Ġbacteria": 4562,
      "Ġmomentum": 4563,
      "Ġhours": 4564,
      "uck": 4565,
      "ĠProposition": 4566,
      "bert": 4567,
      "otrop": 4568,
      "Ġvariance": 4569,
      "Ġtrig": 4570,
      "Ġshift": 4571,
      "Ġequilibrium": 4572,
      "bu": 4573,
      "ING": 4574,
      "Ġwhite": 4575,
      "Ġkind": 4576,
      "Ġjoint": 4577,
      "Ġtemporal": 4578,
      "ĠIV": 4579,
      "ĠAfric": 4580,
      "Ġsubject": 4581,
      "ĠPo": 4582,
      "head": 4583,
      "idel": 4584,
      "Ġantibody": 4585,
      "ĠEffects": 4586,
      "Ġspe": 4587,
      "Ġsufficient": 4588,
      "jected": 4589,
      "rees": 4590,
      "ĠTop": 4591,
      "Ġmutations": 4592,
      "isions": 4593,
      "BC": 4594,
      "Ġinduction": 4595,
      "Ġinteresting": 4596,
      "ella": 4597,
      "can": 4598,
      "Ġsusp": 4599,
      "ĠGroup": 4600,
      "Ġextracted": 4601,
      "istically": 4602,
      "coh": 4603,
      "map": 4604,
      "Ġaccurate": 4605,
      "Ġtoo": 4606,
      "Ġdimensions": 4607,
      "tegr": 4608,
      "Ġgreen": 4609,
      "ĠRo": 4610,
      "Ġwild": 4611,
      "Ġloop": 4612,
      "Ġmeta": 4613,
      "Ġsubstit": 4614,
      "osome": 4615,
      "Ġsuggesting": 4616,
      "Ġspecim": 4617,
      "amental": 4618,
      "iment": 4619,
      "Ġij": 4620,
      "Ġclaim": 4621,
      "Ġauthor": 4622,
      "Ġfilms": 4623,
      "Ġcounter": 4624,
      "Ġconventional": 4625,
      "rin": 4626,
      "otypes": 4627,
      "Ġpast": 4628,
      "Since": 4629,
      "mediated": 4630,
      "reatment": 4631,
      "Ġextension": 4632,
      "Ġbio": 4633,
      "Ġsent": 4634,
      "hal": 4635,
      "Ġobjective": 4636,
      "Ġarray": 4637,
      "Ġsuitable": 4638,
      "ĠBut": 4639,
      "ĠHuman": 4640,
      "organ": 4641,
      "but": 4642,
      "model": 4643,
      "SI": 4644,
      "Ġhealthy": 4645,
      "Ġvac": 4646,
      "Ġlate": 4647,
      "Ġring": 4648,
      "Ġlittle": 4649,
      "MT": 4650,
      "Ġsquare": 4651,
      "Ġgeometry": 4652,
      "ĠTHE": 4653,
      "ĠSing": 4654,
      "jug": 4655,
      "Ġstudents": 4656,
      ",,": 4657,
      "Ġadult": 4658,
      "Ġcharacterization": 4659,
      "Ġatmosp": 4660,
      "Ġmonitoring": 4661,
      "ani": 4662,
      "net": 4663,
      "ĠPa": 4664,
      "optosis": 4665,
      "Ġcontin": 4666,
      "ĠSol": 4667,
      "Ġdatabase": 4668,
      "import": 4669,
      "mann": 4670,
      "ĠProcess": 4671,
      "ĠChen": 4672,
      "Ġgap": 4673,
      "Ġenzyme": 4674,
      "OT": 4675,
      "Ġsimultaneous": 4676,
      "Ġexistence": 4677,
      "BP": 4678,
      "ĠJapan": 4679,
      "ounts": 4680,
      "Ġturb": 4681,
      "Ġspaces": 4682,
      "ĠWeight": 4683,
      "ophil": 4684,
      "Ġast": 4685,
      "Ġwrite": 4686,
      "Ġdiabetes": 4687,
      "ĠCA": 4688,
      "Ġneutral": 4689,
      "Ġvariations": 4690,
      "axon": 4691,
      "Ġbegin": 4692,
      "under": 4693,
      "Ġextraction": 4694,
      "ĠPati": 4695,
      "Ġfron": 4696,
      "efined": 4697,
      "Ġacids": 4698,
      "Ġservices": 4699,
      "Ġsense": 4700,
      "Ġagent": 4701,
      "hens": 4702,
      "electric": 4703,
      "values": 4704,
      "Ġimprovement": 4705,
      "herent": 4706,
      "actic": 4707,
      "Ġacet": 4708,
      "cdots": 4709,
      "Ġamino": 4710,
      "Ġroom": 4711,
      "Ġexpress": 4712,
      "Ġexcept": 4713,
      "Ġold": 4714,
      "plant": 4715,
      "cepti": 4716,
      "ĠPCR": 4717,
      "ĠER": 4718,
      "ĠBoth": 4719,
      "vex": 4720,
      "Ġadults": 4721,
      "Ġpseud": 4722,
      "Ġalle": 4723,
      "Ġworks": 4724,
      "Ġconsumption": 4725,
      "ipher": 4726,
      "cm": 4727,
      "cast": 4728,
      "Ġnanopar": 4729,
      "Ïī": 4730,
      "Ġecon": 4731,
      "ynamics": 4732,
      "Ġalter": 4733,
      "Ġskin": 4734,
      "Ġdiameter": 4735,
      "GC": 4736,
      "ĠSign": 4737,
      "vial": 4738,
      "Ġglucose": 4739,
      "ĠNorth": 4740,
      "otox": 4741,
      "Ġprote": 4742,
      "dx": 4743,
      "ĠCr": 4744,
      "Ġfract": 4745,
      "Ġinside": 4746,
      "Ġstatic": 4747,
      "wid": 4748,
      "Ġstorage": 4749,
      "ĠAL": 4750,
      "ĠMark": 4751,
      "ĠAT": 4752,
      "Ġsensitive": 4753,
      "Ġads": 4754,
      "Ġedges": 4755,
      "ana": 4756,
      "Re": 4757,
      "Ġsummar": 4758,
      "ĠAND": 4759,
      "Ġremaining": 4760,
      "ditionally": 4761,
      "Ġmid": 4762,
      "ĠTheory": 4763,
      "MC": 4764,
      "Ġflex": 4765,
      "oly": 4766,
      "Ġdegradation": 4767,
      "Ġintr": 4768,
      "ota": 4769,
      "isms": 4770,
      "Ġampl": 4771,
      "ĠAre": 4772,
      "Ġworking": 4773,
      "Ġdiversity": 4774,
      "Ġtensor": 4775,
      "Ġbinary": 4776,
      "\"\"\"": 4777,
      "vals": 4778,
      "Ġhem": 4779,
      "ML": 4780,
      "ĠÎ¼g": 4781,
      "neq": 4782,
      "ensities": 4783,
      "Ġtakes": 4784,
      "Ġcharg": 4785,
      "Ġintervention": 4786,
      "Ġalb": 4787,
      "Ġqual": 4788,
      "Ġmentioned": 4789,
      "Ġones": 4790,
      "ĠAccording": 4791,
      "illed": 4792,
      "OH": 4793,
      "Sup": 4794,
      "Ġgalaxies": 4795,
      "aily": 4796,
      "Ġrule": 4797,
      "Ġcognitive": 4798,
      "hern": 4799,
      "Ġrecognition": 4800,
      "Ġbuffer": 4801,
      "Ġmarg": 4802,
      "ĠNi": 4803,
      "ĠâĪļ": 4804,
      "Ġclin": 4805,
      "Ġintegration": 4806,
      "Ġsin": 4807,
      "ĠAlso": 4808,
      "Ġmachine": 4809,
      "wr": 4810,
      "idity": 4811,
      "Ġsubsequent": 4812,
      "Fe": 4813,
      "Ġnames": 4814,
      "ather": 4815,
      "ĠCy": 4816,
      "Ġmetabolism": 4817,
      "Ġreactions": 4818,
      "Ġiter": 4819,
      "Ġnoted": 4820,
      "Ġcauses": 4821,
      "ĠHamilton": 4822,
      "go": 4823,
      "Ġrare": 4824,
      "VA": 4825,
      "ĠMy": 4826,
      "vol": 4827,
      "asure": 4828,
      "Ġsignificance": 4829,
      "ĠNone": 4830,
      "Ġvehic": 4831,
      "SR": 4832,
      "Ġvariability": 4833,
      "ĠDevelop": 4834,
      "aren": 4835,
      "Ġpromot": 4836,
      "ards": 4837,
      "Ġcomputational": 4838,
      "Ġshall": 4839,
      "izations": 4840,
      "ĠHydrogen": 4841,
      "Ġproliferation": 4842,
      "Ġcoupled": 4843,
      "chron": 4844,
      "Ġconvergence": 4845,
      "Ġgast": 4846,
      "Ġcalculate": 4847,
      "raft": 4848,
      "paration": 4849,
      "heric": 4850,
      "ĠPC": 4851,
      "plate": 4852,
      "ptions": 4853,
      "ĠAlgorithm": 4854,
      "Ġresulted": 4855,
      "DE": 4856,
      "Ġinvestigation": 4857,
      "ĠĠĠĠĠĠĠĠĠĠĠĠĠĠĠĠĠĠĠ": 4858,
      "olation": 4859,
      "Ġtasks": 4860,
      "Ġleg": 4861,
      "iness": 4862,
      "Ġemployed": 4863,
      "On": 4864,
      "Ġexperi": 4865,
      "Ġtraject": 4866,
      "GA": 4867,
      "Ġpurpose": 4868,
      "ĠNum": 4869,
      "Ġcompletely": 4870,
      "that": 4871,
      "ĠOptim": 4872,
      "Ġformal": 4873,
      "eck": 4874,
      "ĠProtein": 4875,
      "Ġgoal": 4876,
      "Ġthroughout": 4877,
      "Ġconsidering": 4878,
      "Ġreflect": 4879,
      "treated": 4880,
      "oration": 4881,
      "ribution": 4882,
      "Ġtherapeutic": 4883,
      "Ġfinding": 4884,
      "UN": 4885,
      "Then": 4886,
      "ilities": 4887,
      "Ġunknown": 4888,
      "overed": 4889,
      "Ġvertex": 4890,
      "Ġexchange": 4891,
      "Ġdrugs": 4892,
      "ĠCP": 4893,
      "Ġinstr": 4894,
      "Ġsymmetric": 4895,
      "ĠDep": 4896,
      "Ġconstructed": 4897,
      "Ġprevalence": 4898,
      "Ġdecreases": 4899,
      "ĠmiR": 4900,
      "Ġyet": 4901,
      "Ġbox": 4902,
      "graph": 4903,
      "widehat": 4904,
      "alian": 4905,
      "ufact": 4906,
      "LR": 4907,
      "cription": 4908,
      "Ġnp": 4909,
      "ĠCharacter": 4910,
      "Ġepid": 4911,
      "Î½": 4912,
      "Ġstages": 4913,
      "Ġsay": 4914,
      "ĠDuring": 4915,
      "atur": 4916,
      "ientif": 4917,
      "abric": 4918,
      "Ã¼": 4919,
      "ament": 4920,
      "inations": 4921,
      "Ġsolar": 4922,
      "Ġdiscrete": 4923,
      "ĠEr": 4924,
      "ĠGeneral": 4925,
      "bal": 4926,
      "ĠCent": 4927,
      "uel": 4928,
      "Ġmixture": 4929,
      "Ġwidely": 4930,
      "ĠSecond": 4931,
      "Ġresources": 4932,
      "ĠAppro": 4933,
      "ĠIR": 4934,
      "Ġstring": 4935,
      "opro": 4936,
      "Ġinner": 4937,
      "ĠComplex": 4938,
      "OP": 4939,
      "Ġatoms": 4940,
      "Ġphases": 4941,
      "Ġdomains": 4942,
      "ada": 4943,
      "Ġcountries": 4944,
      "acet": 4945,
      "ociation": 4946,
      "izer": 4947,
      "Ġitself": 4948,
      "Ġminimal": 4949,
      "ĠControl": 4950,
      "ttp": 4951,
      "Ġbottom": 4952,
      "ball": 4953,
      "ĠMay": 4954,
      "dev": 4955,
      "now": 4956,
      "ember": 4957,
      "Ġpercentage": 4958,
      "ĠOther": 4959,
      "omas": 4960,
      "Ġled": 4961,
      "Res": 4962,
      "ĠEng": 4963,
      "kg": 4964,
      "Ġfrequencies": 4965,
      "kin": 4966,
      "Ġincidence": 4967,
      "Ġanimal": 4968,
      "Ġadop": 4969,
      "Ġidentity": 4970,
      "ĠRT": 4971,
      "Ġyoung": 4972,
      "istent": 4973,
      "weight": 4974,
      "gu": 4975,
      "Ġseason": 4976,
      "Ġexplained": 4977,
      "ĠUnder": 4978,
      "iotic": 4979,
      "well": 4980,
      "Ġmetabolic": 4981,
      "gical": 4982,
      "Â±": 4983,
      "Theorem": 4984,
      "ades": 4985,
      "plicated": 4986,
      "Ġcontained": 4987,
      "Ġsulf": 4988,
      "Ġcool": 4989,
      "Ġperson": 4990,
      "Ïģ": 4991,
      "Ġpix": 4992,
      "ĠSal": 4993,
      "link": 4994,
      "ini": 4995,
      "tual": 4996,
      "SH": 4997,
      "ged": 4998,
      "ky": 4999,
      "asts": 5000,
      "ercise": 5001,
      "ĠHar": 5002,
      "Ġrelax": 5003,
      "equiv": 5004,
      "Ġyour": 5005,
      "Ġunderg": 5006,
      "Ġrecovery": 5007,
      "Ġcomm": 5008,
      "Ġdenotes": 5009,
      "formed": 5010,
      "aria": 5011,
      "etic": 5012,
      "Ġtumors": 5013,
      "ĠHy": 5014,
      "Ġmarkers": 5015,
      "Ġplaced": 5016,
      "olute": 5017,
      "Ġwaves": 5018,
      "Ġuncertainty": 5019,
      "Ġcontribute": 5020,
      "ĠHist": 5021,
      "Ġaver": 5022,
      "Ġfav": 5023,
      "Ġpow": 5024,
      "ĠSee": 5025,
      "Ġteam": 5026,
      "Ġscales": 5027,
      "ientific": 5028,
      "ierarch": 5029,
      "Ġearlier": 5030,
      "Ġsatisfies": 5031,
      "Ġcrystal": 5032,
      "Ġpregn": 5033,
      "Ġobserve": 5034,
      "Ġonline": 5035,
      "Ġcontributions": 5036,
      "ogram": 5037,
      "ĠMa": 5038,
      "Ġfrac": 5039,
      "Ġspread": 5040,
      "Ġonce": 5041,
      "det": 5042,
      "Ġrespond": 5043,
      "Ġplatform": 5044,
      "Ġinflammatory": 5045,
      "utive": 5046,
      "ĠSumm": 5047,
      "place": 5048,
      "Ġions": 5049,
      "Ġwindow": 5050,
      "axis": 5051,
      "estinal": 5052,
      "Ġdepending": 5053,
      "Ġseparation": 5054,
      "Ġforward": 5055,
      "ĠTi": 5056,
      "Ġglass": 5057,
      "Ġaccept": 5058,
      "Ġfeedback": 5059,
      "Ġonto": 5060,
      "ME": 5061,
      "merc": 5062,
      "unctional": 5063,
      "Ġapoptosis": 5064,
      "ĠProperty": 5065,
      "Ġintegrated": 5066,
      "Ġorb": 5067,
      "Ġdeviation": 5068,
      "Ġantibodies": 5069,
      "Ġremoved": 5070,
      "Ġlipid": 5071,
      "armac": 5072,
      "Ġarbitrary": 5073,
      "agger": 5074,
      "Ġembry": 5075,
      "Ġgrain": 5076,
      "Ġdrop": 5077,
      "Ġstarting": 5078,
      "Ġrelationships": 5079,
      "ĠÏĩ": 5080,
      "SF": 5081,
      "Ġsimply": 5082,
      "Ġfacilit": 5083,
      "Ġzone": 5084,
      "ils": 5085,
      "Psi": 5086,
      "Ġinequality": 5087,
      "Keywords": 5088,
      "Ġtoler": 5089,
      "edge": 5090,
      "Ġeasy": 5091,
      "Ġalpha": 5092,
      "Ġperf": 5093,
      "width": 5094,
      "init": 5095,
      "Ġimplemented": 5096,
      "CF": 5097,
      "osity": 5098,
      "ocyte": 5099,
      "Ġproportion": 5100,
      "rest": 5101,
      "ĠSuper": 5102,
      "Ġpref": 5103,
      "Ġword": 5104,
      "ev": 5105,
      "Ġextent": 5106,
      "Ġinjection": 5107,
      "alled": 5108,
      "ĠAnti": 5109,
      "Ġbeta": 5110,
      "ĠJan": 5111,
      "ĠGa": 5112,
      "ĠZhang": 5113,
      "Ġiron": 5114,
      "Ġquantitative": 5115,
      "roc": 5116,
      "Ġfall": 5117,
      "Ġregarding": 5118,
      "Ġfix": 5119,
      "Ġdatasets": 5120,
      "Ġtend": 5121,
      "Ġscalar": 5122,
      "Ġresidual": 5123,
      "Ġratios": 5124,
      "ĠÎ¦": 5125,
      "king": 5126,
      "Ġinflammation": 5127,
      "Ġsingular": 5128,
      "ĠPark": 5129,
      "omatic": 5130,
      "unctions": 5131,
      "Ġwar": 5132,
      "ÍĴ": 5133,
      "hemat": 5134,
      "Ġface": 5135,
      "ĠHu": 5136,
      "Ġfundamental": 5137,
      "Ġwavelength": 5138,
      "eling": 5139,
      "ĠSuch": 5140,
      "RNAs": 5141,
      "ct": 5142,
      "Ġiden": 5143,
      "cean": 5144,
      "new": 5145,
      "Type": 5146,
      "ĠFormula": 5147,
      "Ġmedic": 5148,
      "ussion": 5149,
      "Ġdistingu": 5150,
      "Ġresonance": 5151,
      "ATION": 5152,
      "inear": 5153,
      "Ġhyd": 5154,
      "ln": 5155,
      "âĨĴ": 5156,
      "ĠUp": 5157,
      "Ġactual": 5158,
      "Ġadapt": 5159,
      "hene": 5160,
      "Ġmotor": 5161,
      "list": 5162,
      "abit": 5163,
      "Ind": 5164,
      "otal": 5165,
      "Ġneighbor": 5166,
      "ĠPT": 5167,
      "gener": 5168,
      "Ġpossibility": 5169,
      "ergies": 5170,
      "Ġseems": 5171,
      "ĠUS": 5172,
      "Ġimm": 5173,
      "Ġtypically": 5174,
      "Ġsimulated": 5175,
      "ĠSystems": 5176,
      "ectiveness": 5177,
      "rying": 5178,
      "Ġkinase": 5179,
      "Ġdecomposition": 5180,
      "ateral": 5181,
      "Ġrotation": 5182,
      "pendix": 5183,
      "enn": 5184,
      "att": 5185,
      "vate": 5186,
      "Ġtargets": 5187,
      "Ġsituation": 5188,
      "Ġinvolve": 5189,
      "Ġcreated": 5190,
      "hesized": 5191,
      "Ġalone": 5192,
      "ci": 5193,
      "ĠmL": 5194,
      "Ġdivided": 5195,
      "Ġbulk": 5196,
      "oin": 5197,
      "HC": 5198,
      "Ġarm": 5199,
      "LO": 5200,
      "ills": 5201,
      "Ġmedian": 5202,
      "ham": 5203,
      "imer": 5204,
      "flu": 5205,
      "Ġfiber": 5206,
      "ĠSU": 5207,
      "file": 5208,
      "tivated": 5209,
      "Ġradio": 5210,
      "ĠNames": 5211,
      "pe": 5212,
      "Ġoste": 5213,
      "Ġelim": 5214,
      "Ġsuscepti": 5215,
      "rehens": 5216,
      "Ġdiscussion": 5217,
      "ĠSep": 5218,
      "Ġarchitecture": 5219,
      "Ġdest": 5220,
      "typ": 5221,
      "rame": 5222,
      "Ġpartition": 5223,
      "Ġoccurred": 5224,
      "Ġsizes": 5225,
      "cles": 5226,
      "Ġsched": 5227,
      "Molecular": 5228,
      "ĠÎº": 5229,
      "Ġinvas": 5230,
      "cup": 5231,
      "PCR": 5232,
      "ĠSMILES": 5233,
      "tially": 5234,
      "oxide": 5235,
      "ĠEd": 5236,
      "Ġmanufact": 5237,
      "ĠMaterial": 5238,
      "Ġflat": 5239,
      "Ġmutation": 5240,
      "Ġintroduce": 5241,
      "bound": 5242,
      "Ġdisorders": 5243,
      "regulated": 5244,
      "ĠMor": 5245,
      "Ġfalse": 5246,
      "inger": 5247,
      "ĠTR": 5248,
      "Ġextrem": 5249,
      "war": 5250,
      "Ġsymbol": 5251,
      "Ġanomal": 5252,
      "ĠAR": 5253,
      "Ġissues": 5254,
      "Ġcoordinates": 5255,
      "Ġreceptors": 5256,
      "Ġprogression": 5257,
      "ĠFl": 5258,
      "ublic": 5259,
      "Ġelectronic": 5260,
      "Ġaspects": 5261,
      "Ġdocument": 5262,
      "flo": 5263,
      "ĠPred": 5264,
      "Ġgraphs": 5265,
      "Ġtraditional": 5266,
      "DM": 5267,
      "Ġsafety": 5268,
      "ĠDr": 5269,
      "ĠSequ": 5270,
      "Ġcomposite": 5271,
      "ĠÎĽ": 5272,
      "Ġresponsible": 5273,
      "Ġgran": 5274,
      "Ġintermediate": 5275,
      "odium": 5276,
      "posite": 5277,
      "phase": 5278,
      "dt": 5279,
      "Ġweek": 5280,
      "Ġdos": 5281,
      "Ġstabil": 5282,
      "LC": 5283,
      "ĠKey": 5284,
      "Ġvertices": 5285,
      "Ġcomputer": 5286,
      "ĠCanonical": 5287,
      "Ġinvariant": 5288,
      "emark": 5289,
      "benz": 5290,
      "Ġice": 5291,
      "tile": 5292,
      "zy": 5293,
      "ĠOut": 5294,
      "Ġmovement": 5295,
      "Ġshif": 5296,
      "leep": 5297,
      "Ġdaily": 5298,
      "Ġpositions": 5299,
      "Ġhim": 5300,
      "Ġcreate": 5301,
      "Our": 5302,
      "Ġresearc": 5303,
      "Ġprogn": 5304,
      "duct": 5305,
      "Ġscreening": 5306,
      "Ġchoose": 5307,
      "process": 5308,
      "mal": 5309,
      "Ġlaboratory": 5310,
      "Ġoperations": 5311,
      "Ġtools": 5312,
      "ologic": 5313,
      "qquad": 5314,
      "Ġcommonly": 5315,
      "Ġvoid": 5316,
      "Ġoccup": 5317,
      "associated": 5318,
      "Ġcorrelations": 5319,
      "Ġcarcinoma": 5320,
      "lin": 5321,
      "Ġvideo": 5322,
      "Ġheavy": 5323,
      "Ġlargest": 5324,
      "Ġmiddle": 5325,
      "ĉĉĉĉ": 5326,
      "ĠBas": 5327,
      "asons": 5328,
      "iding": 5329,
      "Ġetc": 5330,
      "ache": 5331,
      "ĠEval": 5332,
      "ira": 5333,
      "romagnetic": 5334,
      "Ġcovari": 5335,
      "LI": 5336,
      "Ġdele": 5337,
      "Ġstra": 5338,
      "amples": 5339,
      "oder": 5340,
      "Ġcategory": 5341,
      "ĠInstit": 5342,
      "Ġpolicy": 5343,
      "Based": 5344,
      "ibly": 5345,
      "Ġdetermination": 5346,
      "Ġrespir": 5347,
      "otropic": 5348,
      "Ġolder": 5349,
      "ĠMal": 5350,
      "Ġcytok": 5351,
      "Ġdegrees": 5352,
      "aut": 5353,
      "illing": 5354,
      "eting": 5355,
      "Ġreduces": 5356,
      "Ġideal": 5357,
      "binding": 5358,
      "ĠSpect": 5359,
      "unit": 5360,
      "Ġdiver": 5361,
      "ĠWorld": 5362,
      "Ġmarked": 5363,
      "aly": 5364,
      "Ġcomplexes": 5365,
      "ĠSummary": 5366,
      "Ġpropose": 5367,
      "ĠAustr": 5368,
      "Ġmaxim": 5369,
      "Ġround": 5370,
      "Ġinhibitor": 5371,
      "Ġefficacy": 5372,
      "actor": 5373,
      "bur": 5374,
      "Ġtransf": 5375,
      "ĠGal": 5376,
      "Ġproved": 5377,
      "ĠDefined": 5378,
      "At": 5379,
      "Ġselect": 5380,
      "Ġnanoparticles": 5381,
      "Wh": 5382,
      "ken": 5383,
      "ĠSP": 5384,
      "enge": 5385,
      "Ġdelivery": 5386,
      "Ġdisorder": 5387,
      "ĠInChI": 5388,
      "ĠComparison": 5389,
      "ifying": 5390,
      "ĠMechan": 5391,
      "Ġconclude": 5392,
      "Ġrepeated": 5393,
      "ellow": 5394,
      "ĠÃĢ": 5395,
      "CI": 5396,
      "ĠHz": 5397,
      "analysis": 5398,
      "Tr": 5399,
      "ÃŃ": 5400,
      "elihood": 5401,
      "Ġexpand": 5402,
      "ĠDevelopment": 5403,
      "ĠState": 5404,
      "Ġtet": 5405,
      "ffic": 5406,
      "Ġparent": 5407,
      "Ġscenario": 5408,
      "rs": 5409,
      "ĠWhat": 5410,
      "âī": 5411,
      "Ġstimulation": 5412,
      "ĠObs": 5413,
      "zero": 5414,
      "Ġmanner": 5415,
      "ashed": 5416,
      "ĠLog": 5417,
      "Ġoxide": 5418,
      "phosph": 5419,
      "Ġmigration": 5420,
      "Ġsubgroup": 5421,
      "rosis": 5422,
      "ipp": 5423,
      "DR": 5424,
      "dec": 5425,
      "osomal": 5426,
      "Ġsegment": 5427,
      "ogenous": 5428,
      "FP": 5429,
      "hand": 5430,
      "ĠSurface": 5431,
      "itz": 5432,
      "Ġcrystall": 5433,
      "this": 5434,
      "Ġbuilding": 5435,
      "tag": 5436,
      "Ġreducing": 5437,
      "Ġuns": 5438,
      "Ġrecomb": 5439,
      "Ġcam": 5440,
      "Ġlimits": 5441,
      "ocardi": 5442,
      "&&": 5443,
      "Ġseparate": 5444,
      "Ġsupplement": 5445,
      "kele": 5446,
      "Ġgrad": 5447,
      "Ġissue": 5448,
      "ĠQuantum": 5449,
      "Ġcurrently": 5450,
      "Ġquite": 5451,
      "EP": 5452,
      "Ġrules": 5453,
      "Ġweights": 5454,
      "uary": 5455,
      "illi": 5456,
      "Ġbecame": 5457,
      "Ã³": 5458,
      "Ġnormalized": 5459,
      "ĠNetworks": 5460,
      "erved": 5461,
      "Ġstatistics": 5462,
      "ĠTime": 5463,
      "ĠUV": 5464,
      "Ġcav": 5465,
      "used": 5466,
      "Ġfish": 5467,
      "Ġmajority": 5468,
      "ĠPe": 5469,
      "Ġcohort": 5470,
      "Ġsemi": 5471,
      "Ġgame": 5472,
      "monary": 5473,
      "MM": 5474,
      "oded": 5475,
      "Ġvent": 5476,
      "Ġauto": 5477,
      "Ġabundance": 5478,
      "nov": 5479,
      "Ġasymptotic": 5480,
      "Ġtreatments": 5481,
      "uly": 5482,
      "Ġconstraint": 5483,
      "Ġbey": 5484,
      "ĠSO": 5485,
      "Ġstd": 5486,
      "Ġdeveloping": 5487,
      "ĠNot": 5488,
      "Lemma": 5489,
      "Ġapparent": 5490,
      "Ġcircuit": 5491,
      "From": 5492,
      "ĠEuropean": 5493,
      "Ġsolve": 5494,
      "ĠÍĳ": 5495,
      "ux": 5496,
      "Ġbeyond": 5497,
      "ept": 5498,
      "Ġappe": 5499,
      "requency": 5500,
      "Ġvacu": 5501,
      "ĠIndeed": 5502,
      "ĠChemical": 5503,
      "ĠUndefined": 5504,
      "Note": 5505,
      "Ġnull": 5506,
      "Ġinverse": 5507,
      "Ġnamely": 5508,
      "Ġshear": 5509,
      "mL": 5510,
      "All": 5511,
      "Rec": 5512,
      "Ġgeneralized": 5513,
      "ranes": 5514,
      "ĠTest": 5515,
      "iling": 5516,
      "Ġfluorescence": 5517,
      "ĠÎ£": 5518,
      "Ġindepend": 5519,
      "diff": 5520,
      "Ġproviding": 5521,
      "phenyl": 5522,
      "hing": 5523,
      "Ġviral": 5524,
      "ĠBecause": 5525,
      "Ġintrac": 5526,
      "ĠHig": 5527,
      "Ġwant": 5528,
      "Ġprinciple": 5529,
      "anol": 5530,
      "Ġha": 5531,
      "ovascular": 5532,
      "Ġformer": 5533,
      "Ġestablish": 5534,
      "Ġadvantage": 5535,
      "III": 5536,
      "Ġsequencing": 5537,
      "Ġprocedures": 5538,
      "tra": 5539,
      "index": 5540,
      "fe": 5541,
      "Ġpi": 5542,
      "Ġobvious": 5543,
      "Ġregime": 5544,
      "sur": 5545,
      "Ġpresents": 5546,
      "Ġdisplac": 5547,
      "Ġdecl": 5548,
      "ĠAppendix": 5549,
      "Ġinteract": 5550,
      "lands": 5551,
      "inate": 5552,
      "omorphic": 5553,
      "Ġlowest": 5554,
      "Ġartif": 5555,
      "Ġinvolving": 5556,
      "Ġcommerc": 5557,
      "Ġdop": 5558,
      "Ġconform": 5559,
      "ĠIg": 5560,
      "rolog": 5561,
      "vised": 5562,
      "Ġflo": 5563,
      "Ġcardiac": 5564,
      "pts": 5565,
      "rig": 5566,
      "Ġensure": 5567,
      "Ġaccumulation": 5568,
      "Ġentropy": 5569,
      "Ġidea": 5570,
      "perature": 5571,
      "Ġquestions": 5572,
      "ĠPR": 5573,
      "Ġstatistically": 5574,
      "dagger": 5575,
      "Ġnitrogen": 5576,
      "scr": 5577,
      "ĠDiscussion": 5578,
      "Ġreports": 5579,
      "Ġpulse": 5580,
      "Ġrequirements": 5581,
      "Ġcomparing": 5582,
      "quired": 5583,
      "layer": 5584,
      "Ġspectroscopy": 5585,
      "vironments": 5586,
      "Ġscaling": 5587,
      "Ġexposed": 5588,
      "MB": 5589,
      "Î¾": 5590,
      "Ġhole": 5591,
      "Ġá": 5592,
      "Ġsimilarity": 5593,
      "Ġvariants": 5594,
      "body": 5595,
      "Ġkeep": 5596,
      "ĠCancer": 5597,
      "edi": 5598,
      "osomes": 5599,
      "Ç«": 5600,
      "Ad": 5601,
      "âĪŀ": 5602,
      "monic": 5603,
      "ging": 5604,
      "split": 5605,
      "know": 5606,
      "Ġrough": 5607,
      "hematical": 5608,
      "vision": 5609,
      "Ġded": 5610,
      "Ġcycles": 5611,
      "Ġfamil": 5612,
      "Ġadministration": 5613,
      "etal": 5614,
      "Ġcoron": 5615,
      "Ġinfections": 5616,
      "Ġmacroph": 5617,
      "atics": 5618,
      "Ġpredictions": 5619,
      "isher": 5620,
      "erent": 5621,
      "reted": 5622,
      "include": 5623,
      "Ġclimate": 5624,
      "sec": 5625,
      "========": 5626,
      "ĠMS": 5627,
      "Ġcompe": 5628,
      "ratic": 5629,
      "lig": 5630,
      "poses": 5631,
      "Ġpolarization": 5632,
      "llip": 5633,
      "derived": 5634,
      "Ġreleased": 5635,
      "Ġconnection": 5636,
      "lic": 5637,
      "Ġcoli": 5638,
      "Ġoutside": 5639,
      "Ġabsolute": 5640,
      "esian": 5641,
      "ĠEnd": 5642,
      "ĠOf": 5643,
      "Ġidentical": 5644,
      "Ġmodule": 5645,
      "Ġmitochondrial": 5646,
      "Ġadvanced": 5647,
      "ingly": 5648,
      "formance": 5649,
      "Ġtoward": 5650,
      "uding": 5651,
      "ek": 5652,
      "Ġmeaning": 5653,
      "crib": 5654,
      "ulator": 5655,
      "FN": 5656,
      "key": 5657,
      "cons": 5658,
      "Ġapplying": 5659,
      "ishes": 5660,
      "Ġmamm": 5661,
      "Ġderivatives": 5662,
      "Ġorientation": 5663,
      "Ġstochastic": 5664,
      "ĠAug": 5665,
      "Ġrenal": 5666,
      "ĠGreen": 5667,
      "Ġcomplement": 5668,
      "obl": 5669,
      "pirical": 5670,
      "orts": 5671,
      "BM": 5672,
      "Ġexcess": 5673,
      "Ġmorphology": 5674,
      "Ġsound": 5675,
      "ifier": 5676,
      "Ġimplications": 5677,
      "ĠDesign": 5678,
      "approx": 5679,
      "prop": 5680,
      "Ġcandidate": 5681,
      "Ġdepos": 5682,
      "Ġequip": 5683,
      "ustain": 5684,
      "inese": 5685,
      "etry": 5686,
      "Ġpotentially": 5687,
      "Ġstraight": 5688,
      "Ġcruc": 5689,
      "iology": 5690,
      "Ġkernel": 5691,
      "Ġalcoh": 5692,
      "idden": 5693,
      "return": 5694,
      "Ġcorrection": 5695,
      "rot": 5696,
      "Ġmicroscopy": 5697,
      "Ġfoot": 5698,
      "GL": 5699,
      "ĠCells": 5700,
      "irth": 5701,
      "yg": 5702,
      "ĠPath": 5703,
      "outhern": 5704,
      "ĠLong": 5705,
      "Ġrevers": 5706,
      "Îµ": 5707,
      "arse": 5708,
      "Ġcereb": 5709,
      "isted": 5710,
      "Ġpuls": 5711,
      "Ġdisk": 5712,
      "itud": 5713,
      "Ġdu": 5714,
      "Ġangular": 5715,
      "chem": 5716,
      "length": 5717,
      "Ġexactly": 5718,
      "roke": 5719,
      "uth": 5720,
      "Ġcond": 5721,
      "insic": 5722,
      "Ġrise": 5723,
      "take": 5724,
      "Ġtopological": 5725,
      "Ġremark": 5726,
      "ollary": 5727,
      "Ġcer": 5728,
      "TE": 5729,
      "nment": 5730,
      "Ġbuilt": 5731,
      "Ġfre": 5732,
      "Ġenergies": 5733,
      "ecting": 5734,
      "ĠTem": 5735,
      "rared": 5736,
      "ĠNow": 5737,
      "charge": 5738,
      "Ġlocations": 5739,
      "Ġbalance": 5740,
      "Ġla": 5741,
      "Ġreached": 5742,
      "lammatory": 5743,
      "Ġfabric": 5744,
      "ifications": 5745,
      "Ġdiagnostic": 5746,
      "Ġmutant": 5747,
      "ĠNO": 5748,
      "HD": 5749,
      "ĠAB": 5750,
      "Ġdiscrim": 5751,
      "Ġprecip": 5752,
      "ĠThree": 5753,
      "Ġinser": 5754,
      "Ġinfected": 5755,
      "Ġconstants": 5756,
      "Î©": 5757,
      "negative": 5758,
      "Ġconfidence": 5759,
      "ĠPatients": 5760,
      "ollowing": 5761,
      "ads": 5762,
      "Ġhypert": 5763,
      "ĠInternational": 5764,
      "Def": 5765,
      "ariate": 5766,
      "Ġintervals": 5767,
      "Ġexercise": 5768,
      "Ġeducation": 5769,
      "Ġremoval": 5770,
      "thern": 5771,
      "ster": 5772,
      "Ġinteger": 5773,
      "ĠPA": 5774,
      "Ġkid": 5775,
      "Ġcategories": 5776,
      "ĠGiven": 5777,
      "Ġvascular": 5778,
      "herence": 5779,
      "mathscr": 5780,
      "ĠRet": 5781,
      "Ġinsulin": 5782,
      "ticip": 5783,
      "ĠCF": 5784,
      "Ġlook": 5785,
      "ymmetry": 5786,
      "Ġforces": 5787,
      "ĠPhysical": 5788,
      "LS": 5789,
      "care": 5790,
      "Ġhouse": 5791,
      "Ġinduce": 5792,
      "Ġbelie": 5793,
      "ria": 5794,
      "ĠAssum": 5795,
      "Ġcomputing": 5796,
      "Ġbus": 5797,
      "âĪİ": 5798,
      "Ġpractical": 5799,
      "train": 5800,
      "TT": 5801,
      "Ġplastic": 5802,
      "ĠNor": 5803,
      "Ġfeas": 5804,
      "ĠHamiltonian": 5805,
      "Ġtail": 5806,
      "ĠZn": 5807,
      "Ġinterpretation": 5808,
      "ducing": 5809,
      "Is": 5810,
      "Ġexamine": 5811,
      "ulates": 5812,
      "Ġmatch": 5813,
      "ĠÄ": 5814,
      "ives": 5815,
      "ameters": 5816,
      "ĠÎ¼M": 5817,
      "Ġexhibit": 5818,
      "Ġnit": 5819,
      "oto": 5820,
      "ĠClinical": 5821,
      "ervation": 5822,
      "ĠAdditionally": 5823,
      "arant": 5824,
      "Ġelastic": 5825,
      "DA": 5826,
      "otopic": 5827,
      "Ġactivated": 5828,
      "Ġter": 5829,
      "Ġconsequence": 5830,
      "Ġendot": 5831,
      "ophag": 5832,
      "Ġcomparable": 5833,
      "Ġdominant": 5834,
      "Î·": 5835,
      "Ġvalidation": 5836,
      "Im": 5837,
      "ĠÅ": 5838,
      "Ġleaf": 5839,
      "Ġfung": 5840,
      "taining": 5841,
      "Ġunivers": 5842,
      "Ġphyl": 5843,
      "Ġlibr": 5844,
      "Ġextra": 5845,
      "Ġprint": 5846,
      "mediately": 5847,
      "Ġmaximal": 5848,
      "idae": 5849,
      "Ġoral": 5850,
      "bin": 5851,
      "Ġpeptide": 5852,
      "ĠMax": 5853,
      "arp": 5854,
      "Ġconclusion": 5855,
      "Ġsatisfy": 5856,
      "Ġanalyze": 5857,
      "ois": 5858,
      "Ġinfer": 5859,
      "Ġdraw": 5860,
      "Ġdepression": 5861,
      "Ġmetall": 5862,
      "Ġposterior": 5863,
      "Ġpeaks": 5864,
      "sol": 5865,
      "Ġhorizontal": 5866,
      "Ġlateral": 5867,
      "ĠOR": 5868,
      "NN": 5869,
      "Ġemo": 5870,
      "PV": 5871,
      "TA": 5872,
      "Ġincubated": 5873,
      "Ġretrie": 5874,
      "Ġhumans": 5875,
      "Ġri": 5876,
      "Ġsoci": 5877,
      "onia": 5878,
      "Ġinterven": 5879,
      "Ġvarying": 5880,
      "Ġsti": 5881,
      "ĠImmun": 5882,
      "Ġonset": 5883,
      "Ġleaves": 5884,
      "Ġotherwise": 5885,
      "Ġblocks": 5886,
      "Ġassigned": 5887,
      "SCs": 5888,
      "Ġbios": 5889,
      "Ġmixing": 5890,
      "ara": 5891,
      "li": 5892,
      "Ġdeformation": 5893,
      "Ġcosts": 5894,
      "Ġperipher": 5895,
      "ĠTra": 5896,
      "Ġatomic": 5897,
      "Ġrandomly": 5898,
      "Ġargument": 5899,
      "Ġitems": 5900,
      "Ġsuff": 5901,
      "Ġprobably": 5902,
      "ners": 5903,
      "Ġinhibitors": 5904,
      "Ġbeh": 5905,
      "ĠDeep": 5906,
      "Ġpig": 5907,
      "ĠType": 5908,
      "ĠMost": 5909,
      "ura": 5910,
      "itudinal": 5911,
      "Ġderivative": 5912,
      "Ġexplore": 5913,
      "ĠInformation": 5914,
      "Ġgrap": 5915,
      "ĠÎĶ": 5916,
      "Ġprogress": 5917,
      "****************": 5918,
      "Ġul": 5919,
      "ARS": 5920,
      "oral": 5921,
      "ostic": 5922,
      "Com": 5923,
      "ĠExternal": 5924,
      "ĠStatistical": 5925,
      "ĠRam": 5926,
      "ĠLo": 5927,
      "Ġelectrical": 5928,
      "long": 5929,
      "Net": 5930,
      "ENT": 5931,
      "va": 5932,
      "Ã¤": 5933,
      "urations": 5934,
      "Ġdesired": 5935,
      "iring": 5936,
      "Ġphysics": 5937,
      "Ġmasses": 5938,
      "ki": 5939,
      "Ġbands": 5940,
      "Ġalk": 5941,
      "ĠSimilarly": 5942,
      "Ġsurround": 5943,
      "Ġconvex": 5944,
      "oster": 5945,
      "Ġlinked": 5946,
      "Ġfocused": 5947,
      "Ġhot": 5948,
      "Ġmatching": 5949,
      "Ġoxidation": 5950,
      "Ġanten": 5951,
      "miss": 5952,
      "Ġmental": 5953,
      "ille": 5954,
      "iciency": 5955,
      "ĠLiu": 5956,
      "Ġprobe": 5957,
      "ĠEstim": 5958,
      "Ġindices": 5959,
      "che": 5960,
      "ĠRob": 5961,
      "Ġconv": 5962,
      "ĠVer": 5963,
      "apse": 5964,
      "Si": 5965,
      "phal": 5966,
      "Ġlesions": 5967,
      "Ġmolecule": 5968,
      "Ġadi": 5969,
      "Ġdate": 5970,
      "Ġcomposed": 5971,
      "Ġaud": 5972,
      "structure": 5973,
      "oton": 5974,
      "infor": 5975,
      "Ġclustering": 5976,
      "acent": 5977,
      "star": 5978,
      "PO": 5979,
      "ĠChinese": 5980,
      "Ġspecifically": 5981,
      "erential": 5982,
      "Ġcapture": 5983,
      "ĠLow": 5984,
      "Ġfine": 5985,
      "Ġfemales": 5986,
      "ĠHow": 5987,
      "Ġaer": 5988,
      "vector": 5989,
      "portun": 5990,
      "forms": 5991,
      "zo": 5992,
      "Ġprecision": 5993,
      "ypt": 5994,
      "Ġminutes": 5995,
      "Îº": 5996,
      "Ġoxidative": 5997,
      "conn": 5998,
      "ensus": 5999,
      "Ġtrace": 6000,
      "Ġconjug": 6001,
      "Ġhighlight": 6002,
      "ss": 6003,
      "ĠExperimental": 6004,
      "ĠThat": 6005,
      "artment": 6006,
      "MO": 6007,
      "''": 6008,
      "ometer": 6009,
      "Ġstop": 6010,
      "Ġrib": 6011,
      "Ġouter": 6012,
      "rh": 6013,
      "ript": 6014,
      "Ġfluctuations": 6015,
      "obs": 6016,
      "non": 6017,
      "Ġquark": 6018,
      "ĠÃ°": 6019,
      "ĠMac": 6020,
      "Ġperiods": 6021,
      "rolled": 6022,
      "AV": 6023,
      "ĠOc": 6024,
      "ĠImage": 6025,
      "ĠBel": 6026,
      "Ġpropagation": 6027,
      "ĠDon": 6028,
      "www": 6029,
      "glish": 6030,
      "Ġexhibited": 6031,
      "ogeneity": 6032,
      "ĠBack": 6033,
      "Ġactions": 6034,
      "ski": 6035,
      "ĠAmong": 6036,
      "Ġbrief": 6037,
      "riers": 6038,
      "ĠNF": 6039,
      "positive": 6040,
      "sequently": 6041,
      "ulence": 6042,
      "Ġenvironments": 6043,
      "Ġcurv": 6044,
      "omics": 6045,
      "Ġbit": 6046,
      "Ġgel": 6047,
      "Ġrepresentations": 6048,
      "Ġaway": 6049,
      "ĠField": 6050,
      "obic": 6051,
      "CG": 6052,
      "Ġcomprehens": 6053,
      "Ġhierarch": 6054,
      "Ġinduces": 6055,
      "BD": 6056,
      "Ġhapp": 6057,
      "Ġeight": 6058,
      "Ġgravity": 6059,
      "Ġadaptive": 6060,
      "BL": 6061,
      "genic": 6062,
      "Ġinstruc": 6063,
      "Ġanalytical": 6064,
      "ĠOx": 6065,
      "ĠCON": 6066,
      "Ġsurgical": 6067,
      "Ġdip": 6068,
      "ato": 6069,
      "Ġrandomized": 6070,
      "Ġroles": 6071,
      "dep": 6072,
      "ĠâĪĩ": 6073,
      "chang": 6074,
      "Ġdispersion": 6075,
      "Ġseparated": 6076,
      "ĠOrgan": 6077,
      "ĠVi": 6078,
      "ĠJohn": 6079,
      "Ġannot": 6080,
      "Ġresource": 6081,
      "energy": 6082,
      "relation": 6083,
      "mean": 6084,
      "ĠBen": 6085,
      "Ġconfirm": 6086,
      "With": 6087,
      "Ġinfinite": 6088,
      "ĠScience": 6089,
      "Ġsuccessfully": 6090,
      "Ġlocalization": 6091,
      "mode": 6092,
      "https": 6093,
      "gebras": 6094,
      "idelines": 6095,
      "Ġeffectiveness": 6096,
      "hyd": 6097,
      "Ġsaid": 6098,
      "ico": 6099,
      "Ġtransitions": 6100,
      "eding": 6101,
      "Ġprograms": 6102,
      "Ġmobile": 6103,
      "Ġimmediately": 6104,
      "ectivity": 6105,
      "ĠTherm": 6106,
      "ogenetic": 6107,
      "Ġseven": 6108,
      "Ġemph": 6109,
      "GE": 6110,
      "neum": 6111,
      "Ġfusion": 6112,
      "limits": 6113,
      "Ġcalcium": 6114,
      "raf": 6115,
      "minus": 6116,
      "Ġtrap": 6117,
      "Ġspecimens": 6118,
      "ancing": 6119,
      "ĠMarch": 6120,
      "Ġten": 6121,
      "Ġfamilies": 6122,
      "ĠHD": 6123,
      "isons": 6124,
      "Ġpreparation": 6125,
      "hold": 6126,
      "ether": 6127,
      "ĠVol": 6128,
      "ĠDise": 6129,
      "Ġrunning": 6130,
      "Ġqualit": 6131,
      "Ġeffectively": 6132,
      "fficiently": 6133,
      "BI": 6134,
      "Ġdenoted": 6135,
      "ĠEquation": 6136,
      "Ġdemand": 6137,
      "itory": 6138,
      "aching": 6139,
      "Ġsodium": 6140,
      "Ġreproduc": 6141,
      "cho": 6142,
      "Ġbil": 6143,
      "Pi": 6144,
      "umb": 6145,
      "Ġreconstruction": 6146,
      "forward": 6147,
      "One": 6148,
      "Ġconversion": 6149,
      "Ġformulation": 6150,
      "Ġnearly": 6151,
      "ĠLag": 6152,
      "Str": 6153,
      "terior": 6154,
      "Ġoperating": 6155,
      "andom": 6156,
      "Ġmoving": 6157,
      "ĠReview": 6158,
      "////": 6159,
      "nai": 6160,
      "pp": 6161,
      "otide": 6162,
      "label": 6163,
      "ococc": 6164,
      "Ġnever": 6165,
      "aker": 6166,
      "Ġdigital": 6167,
      "Bl": 6168,
      "Un": 6169,
      "Ġmember": 6170,
      "sel": 6171,
      "Ġpotenti": 6172,
      "Ġcopy": 6173,
      "Ġelectrons": 6174,
      "chlor": 6175,
      "annel": 6176,
      "ylind": 6177,
      "Ġmis": 6178,
      "ĠSet": 6179,
      "Ġnutri": 6180,
      "Ġdescribes": 6181,
      "Ġassumptions": 6182,
      "Ġvirtual": 6183,
      "Ġcoordinate": 6184,
      "Ġvor": 6185,
      "ĠArab": 6186,
      "ĠImp": 6187,
      "Ġdeposition": 6188,
      "Ġinstit": 6189,
      "Ġrepresentative": 6190,
      "everal": 6191,
      "Ġmillion": 6192,
      "ĠMA": 6193,
      "Ġmales": 6194,
      "Ġcrucial": 6195,
      "Ġcold": 6196,
      "Ġloading": 6197,
      "Ġtranslation": 6198,
      "Ġstead": 6199,
      "rays": 6200,
      "Ġchallenge": 6201,
      "activity": 6202,
      "idal": 6203,
      "uff": 6204,
      "Ġseem": 6205,
      "Ġnational": 6206,
      "Ġfa": 6207,
      "Ġminor": 6208,
      "Ġundergo": 6209,
      "cr": 6210,
      "Ġcapt": 6211,
      "ele": 6212,
      "uple": 6213,
      "ĠMg": 6214,
      "lege": 6215,
      "GR": 6216,
      "Ġrig": 6217,
      "Ġarri": 6218,
      "Ġdetector": 6219,
      "Ġstrict": 6220,
      "Ġadhes": 6221,
      "Ġsea": 6222,
      "theless": 6223,
      "Ġsleep": 6224,
      "ĠCommun": 6225,
      "Ġantioxid": 6226,
      "Ġmarker": 6227,
      "Ġflows": 6228,
      "ancre": 6229,
      "ĠJanuary": 6230,
      "input": 6231,
      "UP": 6232,
      "Ġstored": 6233,
      "ading": 6234,
      "itively": 6235,
      "Ġslope": 6236,
      "Ġshell": 6237,
      "Ġelevated": 6238,
      "ilk": 6239,
      "Ġfrequently": 6240,
      "Ġball": 6241,
      "urban": 6242,
      "Ġml": 6243,
      "usive": 6244,
      "ĠAnt": 6245,
      "amino": 6246,
      "Sim": 6247,
      "Ġphysiological": 6248,
      "regulation": 6249,
      "esity": 6250,
      "Ġexplan": 6251,
      "Ġaden": 6252,
      "reme": 6253,
      "Ġdiffer": 6254,
      "Ġmodification": 6255,
      "Ġirradi": 6256,
      "He": 6257,
      "acial": 6258,
      "Ġsuppress": 6259,
      "quis": 6260,
      "Ġdry": 6261,
      "erated": 6262,
      "Ġprojection": 6263,
      "Ġpool": 6264,
      "plete": 6265,
      "Ġdirections": 6266,
      "Ġchanged": 6267,
      "ĠIts": 6268,
      "Ġster": 6269,
      "Ġradial": 6270,
      "Ġgr": 6271,
      "Ġperiodic": 6272,
      "Ġbin": 6273,
      "Ġpip": 6274,
      "men": 6275,
      "then": 6276,
      "pc": 6277,
      "amily": 6278,
      "ĠDM": 6279,
      "Ġsediment": 6280,
      "mi": 6281,
      "Ġclosely": 6282,
      "Ġrepair": 6283,
      "Ġrespiratory": 6284,
      "Ġhorm": 6285,
      "Ans": 6286,
      "dr": 6287,
      "ls": 6288,
      "Ġhomogeneous": 6289,
      "etric": 6290,
      "DS": 6291,
      "Ġresidues": 6292,
      "ĠValue": 6293,
      "Fs": 6294,
      "Ġwhy": 6295,
      "Sp": 6296,
      "Ġca": 6297,
      "Ġnarrow": 6298,
      "gent": 6299,
      "Ġbr": 6300,
      "Ġquasi": 6301,
      "Ġpict": 6302,
      "mo": 6303,
      "Ġatom": 6304,
      "Ġhabit": 6305,
      "Ġlimitations": 6306,
      "conduc": 6307,
      "Ġshock": 6308,
      "ceptor": 6309,
      "ĠDetection": 6310,
      "Sh": 6311,
      "ube": 6312,
      "Ġellip": 6313,
      "UR": 6314,
      "Ġstaining": 6315,
      "Ġrapidly": 6316,
      "ĠBur": 6317,
      "ĠBro": 6318,
      "Ġuptake": 6319,
      "Ġchallenges": 6320,
      "SN": 6321,
      "Ġanis": 6322,
      "Ġbounds": 6323,
      "step": 6324,
      "omeric": 6325,
      "tention": 6326,
      "ĠEvaluation": 6327,
      "Ġrecommend": 6328,
      "Me": 6329,
      "Ġmoderate": 6330,
      "elled": 6331,
      "Ġtit": 6332,
      "ĠYang": 6333,
      "Ġpharmac": 6334,
      "inflammatory": 6335,
      "ĠJune": 6336,
      "Ġsensors": 6337,
      "aired": 6338,
      "Ġapproximate": 6339,
      "SV": 6340,
      "Ġbund": 6341,
      "rc": 6342,
      "oman": 6343,
      "Ġvisible": 6344,
      "Ġmeasuring": 6345,
      "ogonal": 6346,
      "ĠFourier": 6347,
      "Ġtheories": 6348,
      "Ġprofession": 6349,
      "tained": 6350,
      "atas": 6351,
      "ĠInterest": 6352,
      "param": 6353,
      "ĠStructure": 6354,
      "Ġliving": 6355,
      "Data": 6356,
      "ĠSM": 6357,
      "Ġnet": 6358,
      "Ġsimultaneously": 6359,
      "continu": 6360,
      "Ġshor": 6361,
      "########": 6362,
      "Ġdecreasing": 6363,
      "Ġreferred": 6364,
      "gg": 6365,
      "Thus": 6366,
      "Ġdro": 6367,
      "pril": 6368,
      "ĠPers": 6369,
      "Ġencoding": 6370,
      "Ġarc": 6371,
      "Ġregulatory": 6372,
      "Ġtrained": 6373,
      "cepts": 6374,
      "Ġrout": 6375,
      "lys": 6376,
      "Par": 6377,
      "ĠUl": 6378,
      "ĠGraph": 6379,
      "âĪĤ": 6380,
      "Ġirre": 6381,
      "oidal": 6382,
      "Ġexceed": 6383,
      "Ġmostly": 6384,
      "ĠPat": 6385,
      "aternal": 6386,
      "Ġer": 6387,
      "Ġcoverage": 6388,
      "FS": 6389,
      "ĠRot": 6390,
      "Ġclassified": 6391,
      "Ġexcitation": 6392,
      "Ġconductivity": 6393,
      "Ġcommercial": 6394,
      "ĠDel": 6395,
      "ĠPolar": 6396,
      "HR": 6397,
      "Ġtraffic": 6398,
      "zing": 6399,
      "Ġsettings": 6400,
      "Ġinclusion": 6401,
      "Answer": 6402,
      "Ġvit": 6403,
      "vitational": 6404,
      "Ġbind": 6405,
      "Ġoc": 6406,
      "ĠWestern": 6407,
      "Ġprosp": 6408,
      "Ġnorth": 6409,
      "itch": 6410,
      "ĠRiver": 6411,
      "Ġvehicle": 6412,
      "Ġlikelihood": 6413,
      "LD": 6414,
      "Ġinsp": 6415,
      "âĪĨ": 6416,
      "Ġleuk": 6417,
      "ĠBre": 6418,
      "Ġsynthetic": 6419,
      "ĠGermany": 6420,
      "ĠTheir": 6421,
      "target": 6422,
      "ĠEnglish": 6423,
      "Ġnotation": 6424,
      "ĠATP": 6425,
      "ĠModels": 6426,
      "Ġabnormal": 6427,
      "ĠConclusions": 6428,
      "Ġoccurrence": 6429,
      "Ġmicrobi": 6430,
      "ĠWar": 6431,
      "tember": 6432,
      "Ġlocally": 6433,
      "born": 6434,
      "Ġbarrier": 6435,
      "Ġexpressions": 6436,
      "oval": 6437,
      "Ġflav": 6438,
      "emble": 6439,
      "Ġdynamical": 6440,
      "Ġphoton": 6441,
      "apped": 6442,
      "Ġglut": 6443,
      "Ġkinetic": 6444,
      "Ġalcohol": 6445,
      "Ġtransplant": 6446,
      "LP": 6447,
      "Ġdefault": 6448,
      "Ġopportun": 6449,
      "args": 6450,
      "ĠDav": 6451,
      "Ġfront": 6452,
      "hom": 6453,
      "Ġways": 6454,
      "ĠAssociation": 6455,
      "Ġkidney": 6456,
      "Ġproportional": 6457,
      "When": 6458,
      "Ġepithelial": 6459,
      "Ġfresh": 6460,
      "Ġrecall": 6461,
      "Ġenzymes": 6462,
      "br": 6463,
      "Ġmalign": 6464,
      "textrm": 6465,
      "ĠUse": 6466,
      "Now": 6467,
      "ĠLie": 6468,
      "Ġimpair": 6469,
      "Ġguarant": 6470,
      "Ġinver": 6471,
      "Ġtranscript": 6472,
      "Ġsustain": 6473,
      "Ġactually": 6474,
      "alities": 6475,
      "ĠMic": 6476,
      "ĠIC": 6477,
      "ĠMeasure": 6478,
      "Ġï£´": 6479,
      "Ġdensities": 6480,
      "Ġgalaxy": 6481,
      "Ġsufficiently": 6482,
      "Ġorbit": 6483,
      "ford": 6484,
      "Ġpartially": 6485,
      "ĠPy": 6486,
      "Ġreverse": 6487,
      "Ġsurve": 6488,
      "ĠWork": 6489,
      "Ġask": 6490,
      "However": 6491,
      "Ġsitu": 6492,
      "Ġvacuum": 6493,
      "tober": 6494,
      "Ġspac": 6495,
      "anth": 6496,
      "Or": 6497,
      "ags": 6498,
      "Ġbig": 6499,
      "herical": 6500,
      "erge": 6501,
      "ellite": 6502,
      "Ġinvolves": 6503,
      "ĠVis": 6504,
      "Ġsummary": 6505,
      "ĠSupplementary": 6506,
      "ĠColl": 6507,
      "Ġadjacent": 6508,
      "ontaneous": 6509,
      "abs": 6510,
      "Ġresearchers": 6511,
      "ka": 6512,
      "Ġintern": 6513,
      "Ġmonth": 6514,
      "ĠNeural": 6515,
      "apor": 6516,
      "ĠNan": 6517,
      "Ġstri": 6518,
      "EE": 6519,
      "Ġconsisting": 6520,
      "Ġupdate": 6521,
      "Ġphoto": 6522,
      "Val": 6523,
      "sens": 6524,
      "Ġveget": 6525,
      "BR": 6526,
      "Ġcoinc": 6527,
      "ĠJuly": 6528,
      "tility": 6529,
      "ĠExpression": 6530,
      "Ġtopology": 6531,
      "Ġgrowing": 6532,
      "aptic": 6533,
      "uced": 6534,
      "Ġperipheral": 6535,
      "enes": 6536,
      "Ġplots": 6537,
      "Ġexplo": 6538,
      "Ġwor": 6539,
      "ba": 6540,
      "atitis": 6541,
      "ief": 6542,
      "wave": 6543,
      "Ġprotection": 6544,
      "Ġdefects": 6545,
      "Ġadsorption": 6546,
      "Ġshared": 6547,
      "Ġstellar": 6548,
      "ĠBa": 6549,
      "ĠEnergy": 6550,
      "queous": 6551,
      "ĠAugust": 6552,
      "Ġlys": 6553,
      "Ġplus": 6554,
      "irel": 6555,
      "ĠGP": 6556,
      "ĠNeu": 6557,
      "dist": 6558,
      "gers": 6559,
      "ifer": 6560,
      "isp": 6561,
      "Ġstrat": 6562,
      "ione": 6563,
      "ĠMaterials": 6564,
      "Ġln": 6565,
      "Ġpulmonary": 6566,
      "ened": 6567,
      "plan": 6568,
      "Mod": 6569,
      "Ġorganization": 6570,
      "Ġrelaxation": 6571,
      "Ġcortex": 6572,
      "Ġmodulation": 6573,
      "ogl": 6574,
      "shift": 6575,
      "Ġsecurity": 6576,
      "Ġfatty": 6577,
      "Ġms": 6578,
      "local": 6579,
      "ergic": 6580,
      "Ġinterference": 6581,
      "inson": 6582,
      "cf": 6583,
      "Ġreasons": 6584,
      "pred": 6585,
      "Ġinterventions": 6586,
      "Ġjo": 6587,
      "ĠID": 6588,
      "ĠArea": 6589,
      "ĠHa": 6590,
      "uits": 6591,
      "output": 6592,
      "Le": 6593,
      "ycl": 6594,
      "inted": 6595,
      "Ġnano": 6596,
      "NC": 6597,
      "ĠCap": 6598,
      "Ġchanging": 6599,
      "Ġcust": 6600,
      "Ġappeared": 6601,
      "Ġgrown": 6602,
      "ĠUK": 6603,
      "Ġradical": 6604,
      "ĠPot": 6605,
      "ĠProgram": 6606,
      "ĠSR": 6607,
      "Ġshap": 6608,
      "oscop": 6609,
      "ĠChang": 6610,
      "Ġquantity": 6611,
      "ĠTaxon": 6612,
      "idation": 6613,
      "Ġadding": 6614,
      "ĠLee": 6615,
      "Ġamounts": 6616,
      "Ġdespite": 6617,
      "Ġremained": 6618,
      "Ġscenarios": 6619,
      "lets": 6620,
      "oming": 6621,
      "Ġcurvature": 6622,
      "Ġdimensional": 6623,
      "Ġpromising": 6624,
      "ĠFil": 6625,
      "string": 6626,
      "Ġattributed": 6627,
      "ymer": 6628,
      "Ġneighb": 6629,
      "Ġinputs": 6630,
      "Ġmagnet": 6631,
      "Ġtrees": 6632,
      "Ġenter": 6633,
      "ruit": 6634,
      "stable": 6635,
      "toplas": 6636,
      "Ġmessage": 6637,
      "rophic": 6638,
      "Ġisolates": 6639,
      "tz": 6640,
      "Ġdisplayed": 6641,
      "HA": 6642,
      "ocl": 6643,
      "Ġderive": 6644,
      "Ġsynchron": 6645,
      "QU": 6646,
      "Ãŀ": 6647,
      "Ġexamination": 6648,
      "Ġdeb": 6649,
      "Ġdefin": 6650,
      "Ġfault": 6651,
      "Ġsteady": 6652,
      "Ġphenotype": 6653,
      "Ġperspective": 6654,
      "Ġstatement": 6655,
      "df": 6656,
      "void": 6657,
      "Ġpromote": 6658,
      "illary": 6659,
      "ĠEth": 6660,
      "Ġwalk": 6661,
      "Ġrepresenting": 6662,
      "Ġgenomic": 6663,
      "ĠGr": 6664,
      "shape": 6665,
      "ĠPet": 6666,
      "ĠLocal": 6667,
      "plicity": 6668,
      "ĠProblem": 6669,
      "GS": 6670,
      "Ġcompleted": 6671,
      "inking": 6672,
      "Ġreads": 6673,
      "Ġinde": 6674,
      "ceived": 6675,
      "ĠPL": 6676,
      "ĠMean": 6677,
      "ĠSchool": 6678,
      "Ġbiomark": 6679,
      "ireless": 6680,
      "cut": 6681,
      "osing": 6682,
      "nel": 6683,
      "ĠApril": 6684,
      "ĠBal": 6685,
      "Ġadopted": 6686,
      "Ġcomplications": 6687,
      "Ġassembly": 6688,
      "fort": 6689,
      "har": 6690,
      "Ġadoles": 6691,
      "Ġanswer": 6692,
      "Ġcommunities": 6693,
      "ĠInstitute": 6694,
      "Ġvariant": 6695,
      "Finally": 6696,
      "mitte": 6697,
      "Ġrestricted": 6698,
      "Ġmanip": 6699,
      "aters": 6700,
      "EX": 6701,
      "Ġdust": 6702,
      "Ġsupply": 6703,
      "Ġperme": 6704,
      "Ġreliable": 6705,
      "ĠResp": 6706,
      "Ġsubt": 6707,
      "oks": 6708,
      "Ġpoll": 6709,
      "Ġcanc": 6710,
      "ĠUnit": 6711,
      "Ġendothelial": 6712,
      "dy": 6713,
      "ĠBlack": 6714,
      "Ġempirical": 6715,
      "Ġport": 6716,
      "opy": 6717,
      "Ġinitially": 6718,
      "Ġcondens": 6719,
      "Ġeye": 6720,
      "Ġlisted": 6721,
      "urrence": 6722,
      "Ġreplaced": 6723,
      "Ġselective": 6724,
      "Ġdistances": 6725,
      "Ġparas": 6726,
      "ĠPost": 6727,
      "ĠSeptember": 6728,
      "Ġmissing": 6729,
      "verex": 6730,
      "Er": 6731,
      "Ġthought": 6732,
      "thal": 6733,
      "Ġchromat": 6734,
      "Ġbenefit": 6735,
      "rames": 6736,
      "ĠSuppose": 6737,
      "Ġsubs": 6738,
      "Ġangi": 6739,
      "ori": 6740,
      "Ġreplic": 6741,
      "Ġschemes": 6742,
      "pre": 6743,
      "plane": 6744,
      "Ġsouth": 6745,
      "ager": 6746,
      "Ġbeginning": 6747,
      "vents": 6748,
      "onent": 6749,
      "iples": 6750,
      "ĠHer": 6751,
      "Ġspectrom": 6752,
      "Ġdense": 6753,
      "Ġtook": 6754,
      "iverse": 6755,
      "Ġdisturb": 6756,
      "pass": 6757,
      "Ġillustrated": 6758,
      "Ġreveals": 6759,
      "ama": 6760,
      "Ġreflec": 6761,
      "Ġallowing": 6762,
      "Ġexponential": 6763,
      "oustic": 6764,
      "subseteq": 6765,
      "Ġsn": 6766,
      "Ġurban": 6767,
      "Ġextend": 6768,
      "Ġassays": 6769,
      "rice": 6770,
      "CoV": 6771,
      "quisition": 6772,
      "rine": 6773,
      "ĠIntegr": 6774,
      "fil": 6775,
      "VD": 6776,
      "Ġfibro": 6777,
      "Ġcompens": 6778,
      "ĠImpro": 6779,
      "ĠĠĠĠĠĠĠĠĠĠ": 6780,
      "ĠGR": 6781,
      "ÏĪ": 6782,
      "Ġbasal": 6783,
      "Ġolig": 6784,
      "HT": 6785,
      "Ġvess": 6786,
      "uzzy": 6787,
      "Ġpossibly": 6788,
      "Ġtolerance": 6789,
      "Theta": 6790,
      "Ġviol": 6791,
      "uclear": 6792,
      "ĠLim": 6793,
      "gel": 6794,
      "Ġmetrics": 6795,
      "ĠMus": 6796,
      "amination": 6797,
      "Ġelectrode": 6798,
      "Ġpersonal": 6799,
      "Ġcooling": 6800,
      "Ġacquired": 6801,
      "ĠFunction": 6802,
      "ows": 6803,
      "olester": 6804,
      "DP": 6805,
      "Ġreliability": 6806,
      "Ġmuc": 6807,
      "ĠOctober": 6808,
      "Ġgold": 6809,
      "ca": 6810,
      "Ġcul": 6811,
      "fit": 6812,
      "Ġlem": 6813,
      "Ġexcit": 6814,
      "Ġnucleus": 6815,
      "iation": 6816,
      "Ġpregnancy": 6817,
      "Ġsynthesized": 6818,
      "hemistry": 6819,
      "Ġmembranes": 6820,
      "vert": 6821,
      "ĠKim": 6822,
      "tenance": 6823,
      "Ġquantities": 6824,
      "Ġeconomic": 6825,
      "Ġbenefits": 6826,
      "Ġcylind": 6827,
      "pler": 6828,
      "ĠLarge": 6829,
      "Ġengineering": 6830,
      "ĠEp": 6831,
      "Ġcoating": 6832,
      "ativ": 6833,
      "Ġconduct": 6834,
      "Ġabsorb": 6835,
      "ĠDecember": 6836,
      "Ġopposite": 6837,
      "ĠGlobal": 6838,
      "Ġlif": 6839,
      "ĠDue": 6840,
      "Ġintake": 6841,
      "odynamic": 6842,
      "TM": 6843,
      "Ġfed": 6844,
      "Ġspecified": 6845,
      "Ġgeometric": 6846,
      "Ġrespective": 6847,
      "Ġbirth": 6848,
      "ĠCompound": 6849,
      "Ġstarted": 6850,
      "Ġmother": 6851,
      "arr": 6852,
      "Ġprimarily": 6853,
      "Ġparen": 6854,
      "Ġtube": 6855,
      "Ġinters": 6856,
      "Ġgraphene": 6857,
      "itial": 6858,
      "ously": 6859,
      "Ġcardiovascular": 6860,
      "ĠeV": 6861,
      "Ġheating": 6862,
      "Ġmathematical": 6863,
      "Ġindependently": 6864,
      "BA": 6865,
      "Ġaffects": 6866,
      "umor": 6867,
      "ĠMP": 6868,
      "ĠDem": 6869,
      "ĠWest": 6870,
      "ĠDom": 6871,
      "itter": 6872,
      "Ġdisrup": 6873,
      "oped": 6874,
      "Ġphenomenon": 6875,
      "Ġlumin": 6876,
      "Ac": 6877,
      "Ġprefer": 6878,
      "omers": 6879,
      "Ġgender": 6880,
      "ĠGL": 6881,
      "FC": 6882,
      "Ġindeed": 6883,
      "Ġrational": 6884,
      "ĠSC": 6885,
      "Ġprincipal": 6886,
      "Ġperfect": 6887,
      "Ġintroduction": 6888,
      "tes": 6889,
      "Ġpiec": 6890,
      "Ġcity": 6891,
      "Ġpopular": 6892,
      "Ġcoding": 6893,
      "cler": 6894,
      "ague": 6895,
      "ĠHR": 6896,
      "Ġtracking": 6897,
      "ker": 6898,
      "Ġphosphorylation": 6899,
      "Ġpaths": 6900,
      "Ġsolving": 6901,
      "Ġdy": 6902,
      "Ġplayed": 6903,
      "Ġprecise": 6904,
      "ĠSl": 6905,
      "ĠSem": 6906,
      "Ġgenerating": 6907,
      "ĠSun": 6908,
      "Ġcriterion": 6909,
      "Ġbranch": 6910,
      "ĠÎ¶": 6911,
      "tish": 6912,
      "Se": 6913,
      "Ġantigen": 6914,
      "Ġcalibration": 6915,
      "Es": 6916,
      "ĠItal": 6917,
      "Ġmassive": 6918,
      "En": 6919,
      "No": 6920,
      "YP": 6921,
      "ya": 6922,
      "Ġsatisfying": 6923,
      "Ġquick": 6924,
      "HO": 6925,
      "Ġbehaviors": 6926,
      "icrobial": 6927,
      "Ġamb": 6928,
      "Ġproton": 6929,
      "SL": 6930,
      "Ġusual": 6931,
      "rows": 6932,
      "ench": 6933,
      "UC": 6934,
      "Ġweighted": 6935,
      "Ġrecords": 6936,
      "ĠAC": 6937,
      "GT": 6938,
      "inn": 6939,
      "Ġeq": 6940,
      "ĠWil": 6941,
      "yroid": 6942,
      "Ġsetup": 6943,
      "IA": 6944,
      "press": 6945,
      "isely": 6946,
      "Ġentry": 6947,
      "%%": 6948,
      "ĠSil": 6949,
      "east": 6950,
      "ĠEvolution": 6951,
      "ĠRandom": 6952,
      "Ġcavity": 6953,
      "Ġnamed": 6954,
      "knowled": 6955,
      "mber": 6956,
      "uestion": 6957,
      "ĠâĪ©": 6958,
      "gi": 6959,
      "Ġdetermining": 6960,
      "tin": 6961,
      "Ġgenus": 6962,
      "Ġtoxicity": 6963,
      "ocyt": 6964,
      "Ġperturbation": 6965,
      "rought": 6966,
      "ĠBri": 6967,
      "Ġcarb": 6968,
      "ĠGra": 6969,
      "ĠFlu": 6970,
      "uns": 6971,
      "Ġdriven": 6972,
      "Ġbatch": 6973,
      "rif": 6974,
      "Pl": 6975,
      "Ġdisplacement": 6976,
      "ĠCL": 6977,
      "Ġdepic": 6978,
      "Ġpredictive": 6979,
      "Int": 6980,
      "hydroxy": 6981,
      "tid": 6982,
      "dri": 6983,
      "Ġpancre": 6984,
      "Ġdiagonal": 6985,
      "Ġseverity": 6986,
      "Ġlongitudinal": 6987,
      "ĠED": 6988,
      "atible": 6989,
      "dir": 6990,
      "ĠAnother": 6991,
      "ĠHel": 6992,
      "van": 6993,
      "Ġpneum": 6994,
      "Ġspecificity": 6995,
      "squ": 6996,
      "Ġign": 6997,
      "Ġbed": 6998,
      "ĠWT": 6999,
      "awa": 7000,
      "ester": 7001,
      "Ġkg": 7002,
      "Ġcompression": 7003,
      "evertheless": 7004,
      "Ġmask": 7005,
      "-----------": 7006,
      "Ġtens": 7007,
      "rowth": 7008,
      "ĠGo": 7009,
      "Ġfaster": 7010,
      "Ġcanonical": 7011,
      "Ġdetermin": 7012,
      "ustrial": 7013,
      "ĠEarth": 7014,
      "while": 7015,
      "ournal": 7016,
      "Ġcountry": 7017,
      "Ġferm": 7018,
      "rist": 7019,
      "Ġproxim": 7020,
      "Ġmicrobial": 7021,
      "Ġextensive": 7022,
      "Ġcham": 7023,
      "ĠÂ§": 7024,
      "such": 7025,
      "went": 7026,
      "Ġlar": 7027,
      "Using": 7028,
      "ĠPM": 7029,
      "Ġoffset": 7030,
      "ĠPI": 7031,
      "ĠBayesian": 7032,
      "HS": 7033,
      "ĠAfrica": 7034,
      "Ġsusceptibility": 7035,
      "ĠâĬĤ": 7036,
      "ococcus": 7037,
      "ĠDir": 7038,
      "Ġbos": 7039,
      "Ġdysfunction": 7040,
      "ovember": 7041,
      "Ġunderst": 7042,
      "Ġlargely": 7043,
      "ĠCM": 7044,
      "Ġmaintained": 7045,
      "Ġpossess": 7046,
      "Ġexcluded": 7047,
      "ensis": 7048,
      "ĠDC": 7049,
      "opsis": 7050,
      "Ġtorch": 7051,
      "idine": 7052,
      "Ġforest": 7053,
      "ĠExact": 7054,
      "ĠStudies": 7055,
      "iffiff": 7056,
      "ĠCam": 7057,
      "angular": 7058,
      "Ġremove": 7059,
      "oir": 7060,
      "ava": 7061,
      "ida": 7062,
      "Ġmant": 7063,
      "Log": 7064,
      "Ġranging": 7065,
      "rog": 7066,
      "Ġchains": 7067,
      "ĠÇ«": 7068,
      "ĠCase": 7069,
      "ĠAP": 7070,
      "points": 7071,
      "Ġtargeting": 7072,
      "Ġscience": 7073,
      "Ġepis": 7074,
[...]
